e </w>
t </w>
s </w>
t h
d </w>
y </w>
i n
. </w>
a n
e r
o </w>
I </w>
, </w>
e n
o n
o r
o u
th e</w>
t o</w>
a r
g </w>
a p
a </w>
o s
in g</w>
i s</w>
l </w>
e d</w>
er </w>
t i
r e
ap os
apos ;
& apos;
an d</w>
f </w>
l i
o m
in </w>
s t
a t</w>
a l
c h
i t</w>
on </w>
o f</w>
s h
a s</w>
q u
o t
; </w>
v e</w>
m y</w>
e s</w>
or </w>
an </w>
s e</w>
o w
m </w>
k </w>
r i
w h
a y</w>
qu ot
& quot
&quot ;</w>
l y</w>
en </w>
b e
m e</w>
h a
a t
w i
y ou
l e
o o
l e</w>
b u
th at</w>
s t</w>
! </w>
d i
th e
f or</w>
s i
e l
w as</w>
v er
c e</w>
s o</w>
g h
you </w>
l d</w>
o p
ow </w>
th </w>
c a
o t</w>
k e</w>
ha ve</w>
r a
u n
ch </w>
d ay</w>
er e</w>
a b
i r
s u
bu t</w>
th is</w>
p e
en t</w>
&apos; t</w>
n &apos;t</w>
n e
m a
l a
&apos; s</w>
ar e</w>
sh </w>
l l</w>
) </w>
s e
p </w>
r o
? </w>
c om
ti on</w>
en t
d o</w>
ou t</w>
( </w>
b e</w>
u r
i t
wi th</w>
a c
w or
t o
d e
ou ld</w>
g li
s om
w e</w>
on e</w>
u se</w>
gli sh</w>
E n
a g
i c
a l</w>
n ot</w>
m e
e x
En glish</w>
ver y</w>
ar </w>
J ap
or e</w>
re a
n ow</w>
s a
om </w>
c on
th er</w>
t t
d s</w>
n </w>
al ly</w>
c an</w>
gh t</w>
an t</w>
f e
th in
h e</w>
li ke</w>
c i
e a
m p
/ </w>
ou n
r </w>
ab out</w>
f r
ti me</w>
v i
: </w>
be ca
wi ll</w>
&apos; m</w>
l o
y e
i </w>
th ere</w>
an y</w>
. .</w>
u d
e v
al l</w>
oo d</w>
beca use</w>
the y</w>
fr om</w>
s s</w>
an g
t a
m i
e se</w>
w </w>
k ing</w>
g e
t er</w>
t er
wh en</w>
b y</w>
f or
w e
a y
pe op
f ri
m u
peop le</w>
h i
f a
i f</w>
t r
fri en
st ud
o l
a m</w>
. ..</w>
gh </w>
to day</w>
thin k</w>
wh i
ha d</w>
m o
an ese</w>
wh at</w>
p ro
f f
s s
w ant</w>
er s</w>
som e</w>
p ar
m ore</w>
t s</w>
p re
f u
ti on
Jap anese</w>
t y</w>
s pe
t e</w>
i l
at e</w>
t ed</w>
ir </w>
sh e</w>
g ood</w>
s p
a f
t e
g o</w>
re c
som e
d e</w>
p er
th ing</w>
d u
ay s</w>
o ther</w>
w ri
m any</w>
on g</w>
k now</w>
u s
j o
f in
the m</w>
f ir
a s
el l</w>
u l
th ou
os t</w>
ar d</w>
ou r</w>
g o
e l</w>
t u
ap p
h er</w>
d ing</w>
h as</w>
whi ch</w>
d er
k s</w>
w ay</w>
oo k</w>
n i
c ould</w>
ur e</w>
u p</w>
a d
ar y</w>
j u
Jap an</w>
g s</w>
v er</w>
w ould</w>
the ir</w>
a tion</w>
h is</w>
fir st</w>
0 </w>
p la
b o
h e
c </w>
ent s</w>
wh o</w>
i d</w>
w ent</w>
k ed</w>
le a
w ere</w>
ge t</w>
w at
t ing</w>
d o
oo l</w>
af ter</w>
ou s</w>
al so</w>
en ce</w>
h ow</w>
ou r
m ent</w>
s ti
n a
s in
c e
s ch
i mp
ju st</w>
k e
le ar
di d</w>
ag e</w>
oun d</w>
be en</w>
you r</w>
m on
n ing</w>
y ing</w>
p l
ev er</w>
wor k</w>
di ff
t ri
r y</w>
t ra
in ter
m b
p a
s o
ab le</w>
m in
s c
f i
re ally</w>
n o
g i
ar s</w>
f e</w>
en d</w>
com p
ma ke</w>
d r
ow n</w>
h el
m ost</w>
h app
o ld</w>
sh ould</w>
frien ds</w>
sch ool</w>
su r
ne w</w>
b </w>
on ly</w>
d y</w>
c or
we e
s on</w>
s ay</w>
mu ch</w>
h om
d er</w>
fu l</w>
com e</w>
p h
b i
g a
frien d</w>
os e</w>
th an</w>
ver y
g u
m es</w>
m s</w>
l ot</w>
to o</w>
- </w>
d ed</w>
la st</w>
t ea
spe a
t al
s el
a u
e very
g ra
c l
c oun
f ore</w>
t ure</w>
tr y</w>
al l
se e</w>
an ce</w>
n o</w>
st er
b a
st ar
tion s</w>
c k</w>
sa id</w>
C h
stud y</w>
g e</w>
w o</w>
go ing</w>
c u
p o
th en</w>
g re
o f
g ot</w>
wri te</w>
c a</w>
m or
h ere</w>
&apos; </w>
fe el</w>
w ell</w>
ow ever</w>
c t</w>
v ing</w>
g r
u s</w>
d ays</w>
an y
at ed</w>
m m
e st
thou gh</w>
l ang
h owever</w>
0 0
s ent
w w
e p</w>
e i
st r
w ays</w>
in e</w>
l ong</w>
p u
hi m</w>
ye ar</w>
ye ars</w>
c es</w>
lea se</w>
ta ke</w>
8 </w>
it y</w>
un i
el l
it e</w>
c la
tt er</w>
the se</w>
ev en</w>
k in
p ri
b ac
un der
re e</w>
ti ve</w>
a mp
t wo</w>
li fe</w>
p r
&apos; ll</w>
o k
h op
com m
p lease</w>
rea d</w>
tt le</w>
th an
ti mes</w>
w a
cor rec
e ly</w>
ma de</w>
&apos; ve</w>
li ttle</w>
2 </w>
hom e</w>
k es</w>
wh y</w>
ye ster
sin ce</w>
ic </w>
under st
be fore</w>
v ed</w>
l oo
lo ve</w>
e t</w>
p os
s k
al ways</w>
yester day</w>
c ol
mo vi
some thing</w>
ou gh</w>
an s</w>
ag a
thin gs</w>
ne ed</w>
1 </w>
hel p</w>
h tt
op </w>
ne x
st or
nex t</w>
htt p</w>
l u
bac k</w>
pro b
^ </w>
sel f</w>
us ed</w>
ti c
lang u
or t
o ver</w>
v es</w>
hop e</w>
diff er
ca l</w>
su ch</w>
ch ang
m an</w>
s er
si on</w>
h ou
e very</w>
ent ly</w>
happ y</w>
st a
b le</w>
en jo
mb er</w>
m er
e s
b r
se e
h ard</w>
sti ll</w>
e ar
t en</w>
spe ci
tea ch
an s
Ch in
= </w>
fa mi
e p
on s</w>
be tter</w>
ch e
3 </w>
f un
thou ght</w>
inter est
m ar
an i
or t</w>
b ook</w>
lear n</w>
jo b</w>
con t
underst and</w>
s y</w>
a m
t om
wh ere</w>
ic ul
~ </w>
5 </w>
s le
e ss</w>
n u
diff icul
or e
wor ld</w>
t en
di ary</w>
ca tion</w>
D </w>
wat ch</w>
th er
ni ght</w>
li ve</w>
ver si
it s</w>
whi le</w>
r ow</w>
i ce</w>
h o
t ;</w>
in to</w>
an d
aga in</w>
sa me</w>
p ic
li st
c le
e y</w>
wat ch
do es</w>
sh i
prob le
u su
g in
f ac
m y
spea k</w>
a i
l s</w>
ar e
f ound</w>
be st</w>
movi e</w>
hou se</w>
n ed</w>
langu age</w>
en er
w an
n er</w>
op p
h </w>
sur e</w>
s ed</w>
g n</w>
c o
na me</w>
ne ver</w>
rea ding</w>
hi gh</w>
a d</w>
2 00
wri ting</w>
l es</w>
mor ning</w>
l ow
difficul t</w>
per i
tion al</w>
wor ds</w>
g y</w>
de ci
u </w>
v el
fami ly</w>
versi ty</w>
fin d</w>
ca me</w>
ri ght</w>
x </w>
stud ents</w>
r ed</w>
correc t</w>
si c</w>
m ay</w>
wee k</w>
ou ght</w>
ch il
t ook</w>
k i
y ed</w>
than k</w>
e at</w>
or row</w>
pla ce</w>
h u
c all
ra c
ar i
m at
in g
ar ound</w>
wi th
imp ort
c er
imp ro
n ow
ag o</w>
cla ss</w>
b oo
at ing</w>
v e
li ty</w>
. com
kin d</w>
4 </w>
some times</w>
e w</w>
stor y</w>
K ore
per son</w>
differ ent</w>
A </w>
bo dy</w>
mm er</w>
u e</w>
an other</w>
p p
_ </w>
in t
le t</w>
t ur
o ff
* </w>
mer ic
w r
tt ing</w>
ni ce</w>
ea ch</w>
s y
pre s
star ted</w>
ti es</w>
si te</w>
c our
st er</w>
coun try</w>
al s</w>
tom orrow</w>
du c
g ir
mu st</w>
t ell</w>
stud ying</w>
for ei
- 8</w>
I t</w>
my self</w>
tal k</w>
ss ed</w>
e t
el t</w>
ma y
A meric
s m
le c
gi ve</w>
call ed</w>
w in
ba d</w>
bi g</w>
en ing</w>
sent ence</w>
mon ey</w>
import ant</w>
f elt</w>
re s</w>
ww w
f ood</w>
y s</w>
e f
st u
of ten</w>
9 </w>
en ces</w>
ch o
www .
T he</w>
ex amp
g er</w>
may be</w>
y o</w>
in gs</w>
si de</w>
.com </w>
n at
s on
be au
ch i
rec ently</w>
fin i
w on
V </w>
or s</w>
ra l</w>
le ss</w>
wor d</w>
I n
i s
sh ed</w>
teach er</w>
- -</w>
su mmer</w>
S </w>
mu sic</w>
T ok
se con
comp any</w>
fe w</w>
i l</w>
ur ing</w>
ac tu
e st</w>
gre at</w>
dr en</w>
bu y</w>
ro om</w>
with out</w>
some one</w>
f t</w>
Chin ese</w>
j e
c old</w>
a k
cour se</w>
fa v
every one</w>
mi ght</w>
z e</w>
th ree</w>
chil dren</w>
m a</w>
wan ted</w>
ke ep</w>
d uring</w>
p rac
uni versity</w>
pu t</w>
lear ning</w>
p en
c ity</w>
rea dy</w>
stud ent</w>
r e</w>
qu es
l at
ex peri
usu ally</w>
p t</w>
h ea
Tok yo</w>
th r
v el</w>
ne w
C </w>
c ul
chang e</w>
dr in
me ans</w>
v o
me et</w>
ell o</w>
be come</w>
actu ally</w>
te st</w>
b ought</w>
it ed</w>
v a
us ing</w>
H ello</w>
loo king</w>
L ang
wor king</w>
p op
m ed</w>
beau ti
m an
boo ks</w>
pl ay</w>
th ose</w>
l ed</w>
examp le</w>
c ur
w om
t ly</w>
so on</w>
w al
interest ing</w>
p i
fe el
c rea
me an</w>
re la
ul ar</w>
b or
l ook</w>
par t</w>
enjo y</w>
be li
for t
cle ar</w>
pl an
6 </w>
b it</w>
ag es</w>
e ve</w>
d in
to ld</w>
i de
mo ther</w>
beauti ful</w>
star t</w>
sa w</w>
ot e</w>
t or</w>
s es</w>
impro ve</w>
t y
or i
be ing</w>
c ou
qu a
T V</w>
h ot</w>
al most</w>
speci ally</w>
b ro
al though</w>
be t
w ea
mon th</w>
su b
d own</w>
fe c
&apos; d</w>
c ar
ti ce</w>
tri es</w>
he ard</w>
fav or
st e
0 0</w>
you n
su l
s .</w>
g t;</w>
& gt;</w>
as ked</w>
d ra
we en</w>
proble m</w>
al ready</w>
ow er</w>
ch ar
l ow</w>
e specially</w>
s en
& amp
bet ween</w>
s ing</w>
in st
deci ded</w>
ne t</w>
any way</w>
our s</w>
d ly</w>
1 0</w>
Lang -8</w>
of f</w>
ex c
un ti
w ar
en ti
w ard</w>
secon d</w>
ra in
de vel
di c
ti red</w>
un </w>
d d
si ble</w>
s ol
7 </w>
o c
coun tries</w>
col le
thr ough</w>
po in
favor ite</w>
en ed</w>
tr ans
par ents</w>
r u
rea son</w>
% </w>
t es</w>
en ough</w>
b li
c lo
fu ture</w>
ho li
h ar
m ous</w>
o ver
g n
int ro
ga me</w>
j our
unti l</w>
ma kes</w>
d rea
se ar
ge tting</w>
t re
forei gn</w>
ri ed</w>
K </w>
so ci
z ed</w>
c re
i ght</w>
c k
c are</w>
ar t</w>
c oo
fun </w>
ti v
h ours</w>
he al
ou t
s oun
s or
u ral</w>
for ma
th ers</w>
ou </w>
&amp ;</w>
f ol
2 0
H i</w>
b ir
l ing</w>
ans w
f re
fa mous</w>
en glish</w>
me mber</w>
wee k
ther e
te ch
par ty</w>
bo th</w>
re sul
n y</w>
ph one</w>
sle ep</w>
T </w>
l ate</w>
l un
i es</w>
p e</w>
spea king</w>
ro ad</w>
sur pri
sm all</w>
c ed</w>
te mp
k en</w>
b rea
cont in
c ar</w>
v </w>
watch ed</w>
ke t</w>
ent ry</w>
in i
de si
beli eve</w>
si ve</w>
min d</w>
me an
se as
po li
le ss
di s
p s</w>
ea sy</w>
o b
ta in</w>
gra du
do ing</w>
de li
st ra
com ing</w>
at ely</w>
w an</w>
ss es</w>
E </w>
m ent
re sta
bu sy</w>
resta ur
v en
jour n
ti c</w>
watch ing</w>
d ri
su pp
o d</w>
thin king</w>
wat er</w>
lo gy</w>
g ener
bu sin
b all</w>
th s</w>
mi l
A u
devel op
d au
R </w>
b and</w>
soun ds</w>
n a</w>
r ing</w>
pro gra
Americ an</w>
tri ed</w>
l and</w>
fin ally</w>
str u
u m</w>
si tu
go ver
ter s</w>
er ed</w>
see ms</w>
e du
m ents</w>
nat ural</w>
ti t
d a
di sc
gir l</w>
wor k
dau gh
cl u
tt en</w>
sh op</w>
ic i
di tion</w>
pu bli
than ks</w>
mi sta
there fore</w>
sy ste
li ving</w>
s al
me t</w>
h a</w>
d ent</w>
wea ther</w>
Kore an</w>
wri tten</w>
in ed</w>
c ent
T h
prac tice</w>
b lo
to ge
at ure</w>
y es</w>
vi ew</w>
sent ences</w>
b l
ot s</w>
new s</w>
g ar
ne e
W h
tri p</w>
off ice</w>
min u
f ree</w>
any thing</w>
ra in</w>
or der</w>
ne ar</w>
du ce</w>
gover n
me di
e mp
e -
ex pe
s it</w>
tu res</w>
rea li
pic ture</w>
it ing</w>
c y</w>
ce ss</w>
on ce</w>
le ft</w>
lun ch</w>
s un
st s</w>
toge ther</w>
b ed</w>
l t;</w>
& lt;</w>
k now
con si
re p
sh ow</w>
st re
for ward</w>
ha ving</w>
p ower</w>
l on
o to</w>
f lu
busin ess</w>
v al</w>
Y ou</w>
tal king</w>
s ong</w>
interest ed</w>
ear ly</w>
won der
a way</w>
din ner</w>
e lec
h and</w>
g la
con ver
l ine</w>
o thers</w>
il ls</w>
wr ote</w>
ga ve</w>
in forma
st ed</w>
di ed</w>
vi ce</w>
la tion</w>
par t
tra in</w>
d .</w>
at es</w>
ex am</w>
every day</w>
Chin a</w>
c r
list ening</w>
ang e</w>
nu clear</w>
d es</w>
se ver
c ted</w>
pop ular</w>
ci ous</w>
you tu
e ty</w>
ce ss
ea si
ye t</w>
c all</w>
fini shed</w>
na tive</w>
&apos; re</w>
i ma
feel ing</w>
T O
experi ence</w>
R e
st ay</w>
youn g</w>
as k</w>
f il
u p
wi sh</w>
c tion</w>
fa ther</w>
wi fe</w>
c at
shi p</w>
comp u
ques tion</w>
fac t</w>
daugh ter</w>
m en</w>
os s</w>
opp ing</w>
fu l
beca me</w>
v en</w>
every thing</w>
fa ce</w>
mon ths</w>
ea d</w>
ap </w>
drin k</w>
be g
sin g
wh e
on t</w>
loo ked</w>
ide a</w>
govern ment</w>
sle ep
con om
fort un
ne ss</w>
ma king</w>
list en</w>
restaur ant</w>
v ari
in ing</w>
st y
enjo yed</w>
na tional</w>
sh ort</w>
conver sa
ab i
ap er</w>
situ ation</w>
tech no
ou p</w>
hi gh
pos sible</w>
e .</w>
it al</w>
O h</w>
g en
proble ms</w>
se t</w>
sor ry</w>
syste m</w>
st om
drea m</w>
t on
an g</w>
ad v
sk ills</w>
h al
wor ks</w>
N ew</w>
youtu be
char ac
1 9
qu ite</w>
week end</w>
st e</w>
informa tion</w>
youtube .com</w>
cl ud
pa st</w>
or y</w>
no thing</w>
qu i
comp le
pro duc
ab ly</w>
h er
com es</w>
sk i
cul ture</w>
fa st</w>
ta king</w>
bu il
Kore a</w>
sear ch</w>
f ar</w>
holi day</w>
me mor
vi sit</w>
tal ked</w>
v ol
an k</w>
we b
seas on</w>
a w
in crea
e conom
www. youtube.com</w>
publi c</w>
minu tes</w>
movi es</w>
re member</w>
spea k
va cation</w>
f er
poin t</w>
sh opping</w>
o ke</w>
vi si
fol low
me mb
3 0</w>
l y
ap pe
tur n</w>
ar ri
P </w>
u se
inst ead</w>
ex a
he ar</w>
d ay
M i
t ou
sa d</w>
c le</w>
m as</w>
con cer
in s</w>
c ri
ca se</w>
h us
ow s</w>
sever al</w>
c ra
pla ying</w>
d en</w>
vi de
er ing</w>
c li
sti val</w>
wr ong</w>
tr ying</w>
whe ther</w>
s ons</w>
ch ed</w>
ch ance</w>
je ct</w>
surpri sed</w>
S t
th qua
op ini
fe e</w>
A n
s ound</w>
lat er</w>
resul t</w>
F r
si mp
a li
su c
che ck</w>
S h
chang ed</w>
ex pen
ab road</w>
N </w>
d ge</w>
n or
e ting</w>
sp end</w>
se en</w>
answ er</w>
ex pla
nu mber</w>
tea ch</w>
u k
fe ct</w>
ha ir</w>
wom en</w>
st ri
colle ge</w>
ma il</w>
sp ring</w>
200 9</w>
lear ned</w>
ac t</w>
po or</w>
T his</w>
journ al</w>
sh i</w>
h os
in clud
a ma
li ght</w>
e w
t own</w>
tr ue</w>
th day</w>
a tions</w>
st ore</w>
c are
hus band</w>
t ors</w>
h un
pl an</w>
af ter
In ter
hel p
l ar
m en
compu ter</w>
mean ing</w>
f oo
pla yed</w>
k n
g ge
re al</w>
L </w>
la ck</w>
comm un
ear thqua
y e</w>
re s
ri ce</w>
speci al</w>
at ten
an ds</w>
hal f</w>
c an
ha ha</w>
v ir
chi ld</w>
a ir</w>
1 1</w>
t op
are a</w>
wom an</w>
win ter</w>
re l
st op</w>
bu r
deli cious</w>
sty le</w>
ce pt</w>
l ost</w>
ener gy</w>
o le</w>
as ed</w>
gu ess</w>
on es</w>
t ex
k a</w>
ir d</w>
ou s
at t
j ap
tr u
z y</w>
rec ei
fin e</w>
be gin
abi lity</w>
won der</w>
for m
b ab
tra vel</w>
M ar
U </w>
e ss
M y</w>
fortun ately</w>
pos i
T ai
fu ll</w>
d re
j i</w>
bir thday</w>
conversa tion</w>
M </w>
a ch</w>
ser i
ph ra
ic s</w>
hu man</w>
Ch ri
happ ened</w>
tea m</w>
e ating</w>
s si
g g
fr ont</w>
ic k
pr on
inter net</w>
str ong</w>
ma in</w>
th es</w>
o s</w>
ex pres
r un
n er
i m
ar tic
per son
langu ages</w>
du e</w>
fun ny</w>
ma j
heal th</w>
o ve</w>
for m</w>
d one</w>
ev ed</w>
ac cor
l ots</w>
c ool</w>
er ci
str ange</w>
stu died</w>
en g
f o
pres ent</w>
B </w>
st ay
sp on
s ci
f er</w>
li ves</w>
2 0</w>
ex pre
sti c</w>
re comm
sa ying</w>
sc ri
c ts</w>
a ir
un der</w>
soci ety</w>
kn own</w>
techno logy</w>
s wee
lea ve</w>
en s</w>
me eting</w>
h ot
an t
clo thes</w>
O </w>
e d
progra m</w>
son gs</w>
no on</w>
m om
u ght</w>
lea st</w>
wh ole</w>
z ing</w>
intro duce</w>
g oo
or ts</w>
pla y
p ay</w>
f our</w>
less on</w>
op er
ca use</w>
tr ou
TO E
earthqua ke</w>
h on
D e
gh t
pic tures</w>
prob ably</w>
su dd
e le
ar ed</w>
accor ding</w>
el der
wal k</w>
p ur
h our</w>
he art</w>
differ ence</w>
ski ll</w>
s k</w>
me ss
elec tri
y .</w>
c of
in es</w>
ful ly</w>
et c</w>
an ts</w>
al one</w>
di rec
ri es</w>
ar ing</w>
web site</w>
lo gi
hel d</w>
in v
ti ci
S un
mista kes</w>
easi ly</w>
vari ous</w>
b s</w>
f low
usu al</w>
cur r
ma l</w>
a ce</w>
gla d</w>
cu stom
comm on</w>
r un</w>
K y
wee ks</w>
er i
Y </w>
Americ a</w>
edu cation</w>
c ost</w>
f ur
bu s</w>
gh ts</w>
sa ys</w>
er ry</w>
elder ly</w>
c ap
ag ed</w>
re ac
hos p
opini on</w>
t op</w>
s wi
al e</w>
clu b</w>
cu te</w>
do g</w>
artic le</w>
gra mm
pre ci
li es</w>
bu l
cof fee</w>
o g
contin u
pre sent
st ing</w>
en ding</w>
y cle</w>
re spon
sen se</w>
pa in
emp lo
re li
par ed</w>
di tional</w>
wa it</w>
desi gn</w>
B u
intro duc
S ing
le vel</w>
tt y</w>
y en</w>
C an
fini sh</w>
ad dition</w>
hom e
ous ly</w>
vide o</w>
mo ve</w>
fe stival</w>
1 0
I f</w>
s now</w>
ac ci
loo ks</w>
wor ked</w>
gr oup</w>
re search</w>
hea d</w>
z </w>
or g
U ni
st mas</w>
si ster</w>
gin e
lo l</w>
te ly</w>
sh ing</w>
d ai
cu t</w>
out side</w>
ow ed</w>
t w
t able</w>
S e
c er</w>
expen sive</w>
d -
pa ssed</w>
bab y</w>
at e
sel ves</w>
st ation</w>
c al
b ri
h t
gr ap
/ /
sol u
en ly</w>
e ar</w>
ques tions</w>
at ur
ra di
Sing ap
know le
sh o
T o
k new</w>
memb ers</w>
pr om
com fort
cla ss
m ing</w>
we ar</w>
M on
ter ri
su ff
v y</w>
F ri
S u
see ing</w>
ori gin
pro cess</w>
ab ove</w>
y a</w>
p le</w>
la u
cho ose</w>
t ot
a ch
pro fe
sh es</w>
i se</w>
pro vi
gramm ar</w>
D ay</w>
opp ed</w>
re st</w>
F e
kin ds</w>
comp ani
rea sons</w>
exa min
exc ited</w>
commun ic
the m
contin ue</w>
is su
c tor</w>
s mi
develop ment</w>
mar ket</w>
k i</w>
v al
c s</w>
ar ti
si an</w>
ra id</w>
ra ther</w>
vir on
follow ing</w>
expla in</w>
ss ing</w>
tur ned</w>
teach ers</w>
e yes</w>
ne cess
wonder ful</w>
li m
bo y</w>
af raid</w>
ga mes</w>
m os
ar t
stra li
tic ed</w>
sp ent</w>
fi ve</w>
ef fec
c ated</w>
pri ce</w>
con ven
bor n</w>
re qu
sudd enly</w>
W e</w>
b en
rain y</w>
U S</w>
as si
Chri stmas</w>
J u
pre tty</w>
W or
c os
temp er
drin king</w>
O K</w>
N o
fi ed</w>
after noon</w>
use ful</w>
Au strali
di vi
ap preci
. ht
ta tion</w>
Sun day</w>
h ur
heal th
oun t</w>
ou th</w>
vi ous</w>
en viron
mat ter</w>
en gine
pla ces</w>
si mil
in ess</w>
il l
ta kes</w>
x i
reali zed</w>
ti s
mom ent</w>
b er</w>
p aper</w>
ev ening</w>
fi sh</w>
L i
consi der
00 0</w>
comfort able</w>
cla sses</w>
par k</w>
ton ight</w>
ce p
ex erci
s ent</w>
pa ss</w>
vo ice</w>
Inter net</w>
see med</w>
arri ved</w>
e g
su p
knowle dge</w>
de pen
y pe</w>
cl os
& #
&# 9
se a</w>
simp le</w>
ti cal</w>
an ding</w>
t wi
gr and
dai ly</w>
aga in
cl ose</w>
ic es</w>
g ed</w>
atur day</w>
ph ot
ner v
Ky oto</w>
op en</w>
M a
m ate</w>
si ons</w>
ow n
for get</w>
pa in</w>
mo ved</w>
si a</w>
ot e
ev ent</w>
b ic
sc ore</w>
br ing</w>
tra ditional</w>
vi ew
expre ss</w>
hi story</w>
U S
di es</w>
any one</w>
wh ite</w>
wa iting</w>
li ved</w>
it e
supp ort</w>
m oun
ty pe</w>
maj or</w>
app li
ho b
i P
su gge
p or
b ye</w>
Singap ore</w>
compani es</w>
c tive</w>
ir e</w>
ha te</w>
gu y</w>
hosp ital</w>
ag ree</w>
ci ation</w>
re gi
qu ick
te a</w>
ser vice</w>
I N
wor ried</w>
lar ge</w>
G er
Wh at</w>
every body</w>
di st
an ci
rel ated</w>
th ird</w>
expe cted</w>
d a</w>
necess ary</w>
blo g</w>
cont ro
H i
foo ds</w>
I C</w>
gir ls</w>
beg an</w>
I n</w>
opp ort
gu ys</w>
ma in
en cy</w>
il ed</w>
visi ted</w>
u lation</w>
soci al</w>
ck y</w>
sk y</w>
ta ste</w>
p ost</w>
nerv ous</w>
ud e</w>
m l</w>
Uni versity</w>
on g
en ch</w>
f ic
P ar
ta ken</w>
B e
Y ear</w>
ef for
bro ther</w>
B ri
si des</w>
gli sh
lang -8</w>
ch ing</w>
d ence</w>
tit le</w>
s li
we b</w>
op s</w>
spe e
an ces</w>
c ook</w>
s is</w>
gn ers</w>
A l
con fi
temper ature</w>
pre p
war m</w>
sch oo
g on</w>
f f</w>
vo ca
communic ate</w>
c ked</w>
C om
s end</w>
ow ing</w>
ki ds</w>
f all</w>
con fu
com pe
begin ning</w>
f ic</w>
b ar
ad a</w>
h and
am ong</w>
quick ly</w>
min e</w>
de scri
simil ar</w>
s mo
at a</w>
O sa
prep are</w>
R us
run ning</w>
pa ti
at tra
S aturday</w>
dic tion
seri ous</w>
d on</w>
app o
il s</w>
en ded</w>
th us</w>
d ance</w>
nee ds</w>
bo y
g one</w>
sp ending</w>
conven i
mi dd
mor e
e e
rela tion
a se</w>
me .</w>
cou ra
s now
li br
ch i</w>
g lo
comm uni
at er</w>
mi s
fi el
ou d</w>
terri ble</w>
ce le
r ate</w>
h y
ye ar
A pri
qu e</w>
c ks</w>
uni or</w>
buil ding</w>
sleep y</w>
pop ulation</w>
su per
ell ing</w>
nee ded</w>
ph oto</w>
sa tis
ol der</w>
TOE IC</w>
d ding</w>
S ep
sp orts</w>
ne y</w>
d ou
ag e
top ic</w>
you r
sc en
phra se</w>
we ight</w>
ca ke</w>
tra ining</w>
b oss</w>
ter m</w>
ne i
wal king</w>
5 0</w>
le tter</w>
os som
op e</w>
pi e
1 2</w>
go es</w>
Apri l</w>
t end</w>
D o</w>
ima g
mm ing</w>
p le
Tai wan</w>
tra vel
n ers</w>
ent ries</w>
ben ef
e f</w>
f l
h or
speak ers</w>
N a
ke y</w>
c ing</w>
see m</w>
fr u
dra ma</w>
l ose</w>
te mber</w>
k er</w>
tiv ely</w>
home work</w>
again st</w>
G </w>
sa fe
t ab
u ary</w>
mar ried</w>
sh are</w>
hea vy</w>
D i
ir ed</w>
ac k</w>
ro om
pr op
coo king</w>
c ent</w>
brea k</w>
a chi
more over</w>
x ed</w>
in d</w>
an o</w>
Osa ka</w>
w el
be er</w>
jap anese</w>
c at</w>
b lu
En glish
cl es</w>
trou ble</w>
stay ed</w>
i d
fil m</w>
con ne
un fortunately</w>
ar ly</w>
F </w>
gu e</w>
p ot
E ur
re g
d ate</w>
1 5</w>
f lo
forei gners</w>
pre vious</w>
swee t</w>
j unior</w>
al ong</w>
ch erry</w>
cu ri
recomm end</w>
di sa
charac ter</w>
ag ing</w>
mat es</w>
jo in</w>
a z
do ctor</w>
S k
. j
p ort</w>
us es</w>
ti ves</w>
bl ossom
go al</w>
.ht ml</w>
am ount</w>
mi ss</w>
exc iting</w>
Fr ench</w>
gr ound</w>
Australi a</w>
a th
happ en</w>
pos ed</w>
mess age</w>
h old</w>
Sep tember</w>
produc ts</w>
bor ing</w>
$ </w>
m om</w>
ma ch
gradu ate</w>
l er</w>
win d
deci de</w>
me th
ap s</w>
poin ts</w>
gre en</w>
rec or
midd le</w>
b lack</w>
g y
per form
hot el</w>
tici p
inter national</w>
pron un
k u</w>
a st</w>
speak er</w>
wor ry</w>
re spe
no ticed</w>
er y</w>
cou ple</w>
gi ven</w>
ap e</w>
includ ing</w>
P C</w>
colle ag
+ </w>
li ked</w>
l ab
na med</w>
d ol
Jap an
// www.
pr in
oo d
m p</w>
d ers</w>
pre fer</w>
bic ycle</w>
m ale</w>
Can ada</w>
ke ep
b as
su </w>
ent er</w>
ve ge
c ard</w>
wa ke</w>
lo cal</w>
li on</w>
be sides</w>
n s</w>
un e</w>
o on</w>
mista ke</w>
cat ch</w>
el s</w>
ak i</w>
gra de</w>
t ow
Fri day</w>
brea k
boy friend</w>
w oke</w>
ex cept</w>
f la
them selves</w>
expres sion</w>
lu cky</w>
wan ts</w>
ent r
tiv ity</w>
tic s</w>
at s</w>
E R
do or</w>
clo ck</w>
H e</w>
sa ve</w>
libr ary</w>
work ers</w>
y si
s ,</w>
per fect</w>
so c
cle an</w>
peri od</w>
c lear
d ar
origin al</w>
i m</w>
ac e
d ang
z z
ch es</w>
recei ved</w>
appreci ate</w>
ei ther</w>
nor mal</w>
tex t</w>
sel f
d on
environ ment</w>
hom et
on line</w>
acci dent</w>
comple tely</w>
be low</w>
sh ows</w>
examin ation</w>
ac coun
pri v
mu si
e ff
ing .</w>
U n
gu i
bi lity</w>
st ry</w>
H ar
p m</w>
S p
mat eri
on -
l in
an a</w>
ot t
feel ings</w>
ex i
sp ite</w>
re si
Wor ld</w>
teach ing</w>
diction ary</w>
exerci se</w>
de gre
t oo
am i</w>
rain ing</w>
si ck</w>
k o</w>
de fin
curr ent</w>
min i
ph ysi
du l
D V
di sp
ch all
li kes</w>
br ought</w>
S hi
fin al</w>
en ds</w>
sleep ing</w>
gir l
cho col
col or</w>
holi days</w>
v ely</w>
in side</w>
st opped</w>
divi du
tu m
ad ays</w>
t .</w>
O c
nat ure</w>
un ity</w>
re f
day .</w>
ta in
spee ch</w>
a .
in dividu
star ting</w>
li ties</w>
re turn</w>
soc cer</w>
a lity</w>
lon ger</w>
re gar
atten tion</w>
sp ace</w>
sub ject</w>
ment ary</w>
de ta
Mar ch</w>
te le
si l
homet own</w>
now adays</w>
stre et</w>
ta ught</w>
cle an
imp res
youn ger</w>
increa se</w>
ex change</w>
stru c
d an
medi cal</w>
communi cation</w>
u es</w>
for got</w>
cer tain</w>
ad d</w>
at or</w>
some day</w>
grap h
c ir
s ou
pronun ciation</w>
a vo
hu ge</w>
ch in
ser v
present ation</w>
so f
enti al</w>
play er</w>
Bu t</w>
s day</w>
l os
.j p</w>
pre par
cer e
af f</w>
o -
in ten
we dding</w>
jo ined</w>
st aff</w>
inter view</w>
X </w>
par ticip
e tic</w>
voca bul
H a
de a
ari es</w>
bi le</w>
st and</w>
com pared</w>
G od</w>
i or</w>
con dition</w>
con di
k il
ba se
ani m
M ay</w>
eff ici
mon y</w>
un k</w>
A r
am a</w>
an n
sh a
h ood</w>
re gre
resul ts</w>
de m
s m</w>
E x
w ell
m .</w>
tot ally</w>
ess ay</w>
in flu
I D</w>
pl ant</w>
concer t</w>
cho ice</w>
org ani
b al
o li
el se</w>
part ment</w>
3 0
si x</w>
h it</w>
blu e</w>
ap art
S a
C hi
ad vice</w>
par tic
C on
rep ort</w>
ama zing</w>
fec ture</w>
cent er</w>
om e
K an
tr an
wor se</w>
- time</w>
re fer
it .</w>
bac k
pr ote
at u
journ als</w>
m it
A N
relation ship</w>
Mon day</w>
ap pro
Oc to
win d</w>
b ased</w>
sol ve</w>
lau gh
p ose</w>
ac ti
safe ty</w>
y -
ide as</w>
st ep</w>
・ </w>
oo oo
M r</w>
perform ance</w>
M e
en coura
comp li
T he
la w</w>
a dul
trans late</w>
imag ine</w>
fe ature</w>
n e</w>
en d
ag er</w>
econom ic</w>
sle pt</w>
Q </w>
- 8
dri ving</w>
aw a</w>
b er
J o
tum n</w>
di a</w>
w on</w>
ster n</w>
li ar</w>
tru th</w>
Octo ber</w>
pa ss
are as</w>
cont act</w>
c ars</w>
En g
t on</w>
plan ts</w>
T u
ge ts</w>
sh ops</w>
entr ance</w>
li st</w>
en ced</w>
ani sh</w>
gu st</w>
ser ies</w>
reali ze</w>
break fast</w>
har der</w>
ti sh</w>
b al</w>
f an
smi le</w>
b an
ha i</w>
ba th</w>
less ons</w>
c up</w>
1 00</w>
posi tion</w>
charac ters</w>
fre sh</w>
O r</w>
moun tain</w>
vol un
nei gh
cra zy</w>
plan ning</w>
au th
gener ation</w>
help ed</w>
econom y</w>
du ct</w>
fiel d</w>
base ball</w>
dri ve</w>
compe ti
high er</w>
au di
en ever</w>
p er</w>
health y</w>
n ood
ke pt</w>
m i</w>
issu e</w>
, 000</w>
s mar
1 1
z ation</w>
qua lity</w>
flow ers</w>
f ell</w>
acti vi
uk u
tic ally</w>
ment al</w>
W i
h aps</w>
ang ry</w>
o o</w>
bro ken</w>
20 10</w>
g ot
r an</w>
bo x</w>
1 st</w>
stor ies</w>
oc cur
vocabul ary</w>
dre ss</w>
tri eved</w>
in ted</w>
dis appo
li er</w>
mo der
sch edu
cr ow
L on
en se</w>
Sk ype</w>
c king</w>
swi mming</w>
hob by</w>
no body</w>
je cts</w>
dr ank</w>
ke ts</w>
sup posed</w>
on al</w>
boo k
pro ject</w>
w a</w>
si g
tou ch</w>
lo cated</w>
mo bile</w>
wh enever</w>
os hi
lat ely</w>
beg in</w>
effor t</w>
ca mer
your self</w>
p ow
ar ds</w>
F u
Au gust</w>
confu sed</w>
N i
ca fe</w>
wal ked</w>
d own
ad ver
e- mail</w>
disc u
in no
bo ard</w>
anim als</w>
ca st</w>
att end</w>
dra w
J an
sh oc
jo bs</w>
in de
b ott
in du
mi d
apart ment</w>
frien dly</w>
wa ste</w>
person al</w>
n is</w>
me dic
o k</w>
ex ac
tion ed</w>
ic k</w>
ca ught</w>
mo tiv
emplo ye
ac tion</w>
a i</w>
Re trieved</w>
mu se
mu l
su shi</w>
opport unity</w>
contro l</w>
der ed</w>
fi g
ent ed</w>
activi ties</w>
con clu
ar a
new sp
T i
fi re
girl friend</w>
e mo
20 11</w>
con cent
ch at
i sed</w>
di shes</w>
fa shi
consi der</w>
happ iness</w>
for e
ar r
stu ff</w>
cele br
ac tive</w>
tab les</w>
underst ood</w>
Ju ly</w>
4 0</w>
got ten</w>
crea m</w>
g ner</w>
me al</w>
li ke
h ands</w>
ele mentary</w>
flo or</w>
s un</w>
c ell
tri bu
di an</w>
P ro
on i
me ant</w>
frien d
im medi
f all
ten se</w>
f ar
inter est</w>
hel ps</w>
comm ents</w>
schoo ls</w>
b ra
h one</w>
ter i
electri city</w>
con tra
pro gre
com pla
Lon don</w>
easi er</w>
or din
ke t
stre ss</w>
in e
gr ow</w>
bu tt
V i
sun ny</w>
de al</w>
lo ved</w>
li fe
sho es</w>
si bility</w>
exac tly</w>
memor i
pre v
trans lation</w>
ri de</w>
S o</w>
p age</w>
li c
t ough</w>
Bri tish</w>
de ar</w>
la zy</w>
b a</w>
gen etic</w>
expres sions</w>
st ers</w>
ma ster</w>
de st
so ld</w>
y u
re le
co -
ten nis</w>
F uku
ver sion</w>
some body</w>
p sy
sci ence</w>
rec ent</w>
dea th</w>
ty ph
be ha
w in</w>
adv ant
memor y</w>
di sh</w>
b le
1 2
sti tu
b la
self -
suc cess
ur a</w>
f y</w>
b ar</w>
da ma
T here</w>
expe ct</w>
or ity</w>
gu it
volun te
ch a
li ter
ga z
ta st
continu ed</w>
conclu sion</w>
1 5
wonder ing</w>
cere mony</w>
imp re
chocol ate</w>
wi l
lu ck</w>
ch at</w>
bl ood</w>
per haps</w>
st ly</w>
re ly</w>
US A</w>
satis fied</w>
d ents</w>
r op
par ts</w>
pur pose</w>
hou se
J une</w>
tou ri
ba g</w>
de partment</w>
chang ing</w>
ac k
ta ins</w>
profe ss
o &apos;
in ci
k u
gi ving</w>
fol low</w>
p es</w>
N or
any more</w>
part -time</w>
fami liar</w>
mach ine</w>
exa ms</w>
lim ited</w>
s oup</w>
p ol
with in</w>
gener al</w>
j i
ca used</w>
200 8</w>
ti ll</w>
ear lier</w>
coo ked</w>
twi ce</w>
che cked</w>
scen e</w>
s p</w>
ma gaz
correc tions</w>
ang a</w>
lang -8
we aring</w>
fo ot
sing ing</w>
s w
gi ves</w>
e mb
it ely</w>
os i
es .</w>
gar den</w>
P e
list ened</w>
al co
correc ted</w>
introduc tion</w>
G re
phot os</w>
ri ch</w>
class mates</w>
f ra
d ro
ir s</w>
d ness</w>
d ings</w>
sh ir
develop ed</w>
know s</w>
avo id</w>
bi ke</w>
R i
H ow</w>
posi tive</w>
ser ve</w>
h ol
k it
Ger man</w>
li an</w>
tit ude</w>
A R
i cal</w>
t -
ex p
ok ay</w>
electri c</w>
S y
hi m
mo ving</w>
stay ing</w>
confi dence</w>
Wh en</w>
on e
on d</w>
l a</w>
sa fe</w>
tic ket</w>
pro duct</w>
be ach</w>
custom ers</w>
op ened</w>
fin anci
W e
no tice</w>
work er</w>
tre es</w>
logi cal</w>
t ory</w>
di e</w>
19 9
de ep
bro ad
s our
en ce
th re
meth od</w>
dou b
ther more</w>
o&apos; clock</w>
lang-8 .com</w>
ici al</w>
si ze</w>
g er
s n
ri ver</w>
cli mb
sh owed</w>
Sp anish</w>
ne ga
lea d</w>
provi de</w>
re pe
che ap</w>
vege tables</w>
pre fecture</w>
defin itely</w>
r ap
I s</w>
or ed</w>
har dly</w>
og ni
ph ere</w>
at mos
p ra
it able</w>
pie ce</w>
om e</w>
o es</w>
be comes</w>
u mb
au tumn</w>
care ful</w>
3 ;</w>
&#9 3;</w>
blossom s</w>
1 ;</w>
&#9 1;</w>
expe c
s low
ima ge</w>
ge st</w>
com ment</w>
c ell</w>
no vel</w>
c tions</w>
sing le</w>
rec ogni
a ss
Rus sian</w>
profe ssi
wind ow</w>
# </w>
1 8
p id</w>
be h
glo bal</w>
c ally</w>
beha vi
g ol
ac cep
ac tivity</w>
some where</w>
er r
ag o
typh oon</w>
sen ior</w>
s .
men tioned</w>
k ore
hur t</w>
ch ose</w>
sh ou
m el
accoun t</w>
thou s
immedi ately</w>
n t</w>
h an
d ry</w>
sh r
pre pared</w>
b read</w>
ani me</w>
le tt
underst anding</w>
sc re
pron oun
tu ral</w>
l ap
enjo ying</w>
O R</w>
con tribu
gge st</w>
fig ure</w>
ur y</w>
impre ssed</w>
psy cho
dr unk</w>
ca mp
recei ve</w>
in stru
fre qu
be coming</w>
engine ering</w>
b rain</w>
cur ry</w>
B i
t a</w>
pain ting</w>
keep ing</w>
imp os
priv ate</w>
bi ggest</w>
camer a</w>
r oss</w>
pa id</w>
beh ind</w>
vi sion</w>
do cu
pi ano</w>
co ver
H T
ent y</w>
dol l
conveni ent</w>
d or
♪ </w>
2 5
medic ine</w>
Eng land</w>
ic ken</w>
chang es</w>
reac tor</w>
T H
DV D</w>
rela x</w>
e se
m ot
speci fic</w>
he at</w>
er .</w>
f it</w>
b it
trans l
fur thermore</w>
cos ts</w>
w ar</w>
sp i
} </w>
ver b</w>
stu pid</w>
wi se</w>
dang er
al y
g es</w>
S he</w>
jap an</w>
moder n</w>
c y
L e
ga in</w>
b b
ca tions</w>
ra ce</w>
smar t</w>
me at</w>
mat ch</w>
increa sing</w>
pl ans</w>
at ter
Sh in
ci es</w>
g ing</w>
a va
si tes</w>
ri </w>
progra ms</w>
ti z
{ </w>
k a
B o
drea ms</w>
X D</w>
dar k</w>
atmos phere</w>
ef fect</w>
se ase</w>
t ree</w>
sci enti
v ic
an tly</w>
tra ff
s /
appe ared</w>
st age</w>
introduc ed</w>
cu s</w>
r ul
con su
do gs</w>
chil d
sh ort
differ ences</w>
respe ct</w>
answ ered</w>
vel s</w>
qu it</w>
k ers</w>
pre ssed</w>
m m</w>
mil k</w>
m er</w>
or ted</w>
ch e</w>
travel ing</w>
suc cess</w>
d om</w>
year -
h h
ou se</w>
adv ance</w>
c ru
G u
radi o</w>
tion .</w>
st and
de ad</w>
c op
disappo inted</w>
sa u
ea h</w>
li ed</w>
o ci
effec tive</w>
U K</w>
ro le</w>
devel op</w>
ma tion</w>
com b
arti cles</w>
guit ar</w>
or dered</w>
nega tive</w>
ou gh
li t
f an</w>
The y</w>
danger ous</w>
in k</w>
o il</w>
m ood</w>
di al
an ti
reac tors</w>
ba sic</w>
s l
res our
ava il
solu tion</w>
lea ves</w>
af fec
n on-
uni que</w>
sp ort</w>
O N
K a
traff ic</w>
wh at
se qu
fan ta
financi al</w>
hu m
h i</w>
t or
H ey</w>
him self</w>
i ld</w>
s -
g le</w>
v in
ne t
r om
shi ma</w>
R o
de ep</w>
T E
is land</w>
tech ni
spe ed</w>
adver ti
tex t
te sts</w>
ro ck</w>
o ther
fe male</w>
pro ce
di sease</w>
lo vely</w>
re memb
de spite</w>
t ar
k an
m on</w>
experi ences</w>
K o
se cre
ear th</w>
ad m
inst ance</w>
dr u
crow ded</w>
h ost</w>
Y or
deci sion</w>
Jan uary</w>
C a
ex tre
low er</w>
p .
ho l</w>
fami lies</w>
pa ir</w>
wh ose</w>
colleag ues</w>
I ta
ann oun
thou ghts</w>
correc tion</w>
ser ved</w>
1 8</w>
experi enced</w>
star ts</w>
n ur
mar ri
a we
F L</w>
we ird</w>
ent er
s ell</w>
like ly</w>
flu ently</w>
ex ha
ac ross</w>
stri ct</w>
fe ver</w>
de st</w>
wea k</w>
st ea
st ate</w>
phra ses</w>
w ine</w>
con stru
schedu le</w>
ch icken</w>
ent al</w>
emplo y
progre ss</w>
ni fic
re min
g .</w>
cre ate</w>
t in
V HT
re duce</w>
bu ild</w>
de crea
ordin ary</w>
ev ents</w>
s ks</w>
ell ow</w>
e qui
sc ared</w>
fur ther</w>
Eur ope</w>
N o</w>
e al
si tting</w>
p ap
help ful</w>
wel come</w>
goo ds</w>
pic k</w>
age ment</w>
ac cept</w>
y a
impos sible</w>
at en</w>
stu dies</w>
iP hone</w>
VHT R</w>
se at</w>
plan e</w>
y aki</w>
n b
s we
ce mber</w>
ly ri
g ic</w>
S outh</w>
br u
flow er</w>
M u
stor es</w>
an no
Fe stival</w>
ok en</w>
r en
p an
mil lion</w>
gre at
wor th</w>
k ai
p ay
avail able</w>
cat s</w>
suc ce
profess or</w>
Un ited</w>
pres sure</w>
g ry</w>
cl ou
W ow</w>
mo on</w>
dra w</w>
ti me
s a</w>
nb sp</w>
na mes</w>
gradu ated</w>
clear ly</w>
F i
alco hol</w>
ci tiz
wi de</w>
memor ies</w>
gradu ation</w>
re qui
clos ed</w>
F ace
se me
ma th</w>
l led</w>
go d</w>
ima gin
sp oke</w>
x ing</w>
disa ster</w>
at ory</w>
y eah</w>
at ta
P re
shoc ked</w>
ter ms</w>
nat ur
an ced</w>
a ca
fire works</w>
impro ving</w>
1 00
poli ce</w>
c el
com e
De cember</w>
lau gh</w>
exha u
in -
ver s</w>
ac tor</w>
l d
gener ally</w>
Q u
en ge</w>
Th at</w>
o d
forei gner</w>
☆ </w>
p as
op e
z u
reli gi
newsp aper</w>
fi le</w>
bo ys</w>
an ce
a to</w>
ve ment</w>
le ep</w>
ent ered</w>
on ic</w>
physi cal</w>
curi ty</w>
1 4
K i
mis sion</w>
rela tives</w>
fo cus</w>
mid night</w>
partic ular</w>
hon est</w>
gr owing</w>
b ad
impro ved</w>
rea ch</w>
main ly</w>
dan cing</w>
professi onal</w>
achi eve</w>
Face book</w>
sm ell</w>
n ot
chin ese</w>
beau ty</w>
Y u
gg ing</w>
T a
h ence</w>
medi a</w>
in vol
smo king</w>
fir e</w>
M ay
atu res</w>
vi l
tw are</w>
l ay</w>
TOE FL</w>
x i</w>
individu al</w>
hun gry</w>
le g
car ds</w>
2 5</w>
rea son
gr ow
n d</w>
restaur ants</w>
wa i
fac i
what ever</w>
consider ed</w>
M o
m anga</w>
descri be</w>
se par
ket ball</w>
regre t</w>
A S
in t</w>
g -
curr ently</w>
prepar ing</w>
d en
st anding</w>
dri ver</w>
char ge</w>
j ud
ell s</w>
.com /
T o</w>
lett ers</w>
issu es</w>
H ir
e sc
buil t</w>
rul es</w>
ori es</w>
competi tion</w>
seri ously</w>
air port</w>
n ote</w>
tit les</w>
for med</w>
g ger</w>
re sear
fi ght</w>
gi ft</w>
all ow</w>
1 6
1 3</w>
pr oper
for ce</w>
seme ster</w>
simp ly</w>
si gn</w>
re turned</w>
b ank</w>
sk in</w>
comple te</w>
a spe
foot ball</w>
e mail</w>
sin ger</w>
dist ance</w>
di et</w>
A T
atten ded</w>
app rop
l an
com ic</w>
bro ke</w>
gradu ally</w>
fashi on</w>
ent u
al ter
C ol
off er</w>
ri sk</w>
r oun
A K
in ation</w>
p lea
play ers</w>
me a
it self</w>
1 6</w>
ul arly</w>
P lease</w>
An d</w>
L IN
L a
se ven</w>
ok a</w>
p ool</w>
ver age</w>
as leep</w>
me ly</w>
he si
approp ri
z a</w>
ci ties</w>
Yor k</w>
materi als</w>
hu mi
J </w>
er ful</w>
P ER
ex plan
ti re
ki pe
form er</w>
T e
sof tware</w>
tic ing</w>
m o</w>
feel s</w>
shi ps</w>
ur </w>
in j
I E
m ic
de pressed</w>
tot al</w>
s sion</w>
an aly
phot o
ara oke</w>
de ter
ab solu
volunte er</w>
sal es</w>
sur vi
ex hi
ar ra
lon ely</w>
d ont</w>
To day</w>
pre si
m ma
1 3
rele ased</w>
a -
po e
le ad
cre ated</w>
O kin
sp oken</w>
la un
bor ed</w>
1 4</w>
bas ketball</w>
f at</w>
custom er</w>
English .</w>
re ci
develop ing</w>
A M</w>
f le
2 4</w>
d ata</w>
cul tures</w>
prop er</w>
happ ens</w>
requ ired</w>
prev ent</w>
i so
cont ent</w>
ir y</w>
Ita lian</w>
employe es</w>
surpri se</w>
H ok
sau ce</w>
all s</w>
temp le</w>
elec tr
te e
deep ly</w>
H Y
sig nific
cul tural</w>
secon dly</w>
lec ted</w>
g ned</w>
b ow
th ir
fri ed</w>
uk i</w>
t ch</w>
bu ying</w>
D is
se curity</w>
in a</w>
se as</w>
r d</w>
li e</w>
pe t</w>
nu mb
neigh b
a a
over ed</w>
tre at
struc ture</w>
c ow
R F
W ed
some how</w>
h ang</w>
ak u
lo ves</w>
com </w>
hou ses</w>
ba si
t our</w>
B B
mu sc
fi cation</w>
examp les</w>
grow th</w>
success ful</w>
commun ity</w>
slow ly</w>
child hood</w>
su me</w>
buil dings</w>
O R
le .</w>
D s</w>
str on
rep ly</w>
awe some</w>
room s</w>
bi es</w>
→ </w>
si ght</w>
er e
app ly</w>
d enti
C D</w>
ty pes</w>
care er</w>
ple as
wh om</w>
chall enge</w>
★ </w>
lo ad</w>
mar k</w>
ki ll</w>
ha bit</w>
degre e</w>
T wi
m outh</w>
St ates</w>
ru le</w>
marri age</w>
impres sion</w>
direc tly</w>
indu stry</w>
ba th
fa iled</w>
celebr ate</w>
fi f
the less</w>
br uary</w>
gr ou
Y ou
str ong
the ater</w>
fil led</w>
ea se</w>
b re
e ye</w>
an xi
LIN K</w>
us ers</w>
gy m</w>
year- old</w>
PER LINK</w>
HY PERLINK</w>
k m</w>
gh tly</w>
concent rate</w>
sugge s
F or</w>
fir stly</w>
appli cation</w>
sh y</w>
il lu
ic ally</w>
li g
g ri
M ac
1 7
correc ting</w>
ph ones</w>
he aring</w>
ar a</w>
200 7</w>
H </w>
n al</w>
st le</w>
P er
condi tion
at titude</w>
y ,</w>
st at
c ry</w>
bir th</w>
su mm
reg ular</w>
e ts</w>
uni ties</w>
id enti
b ly</w>
V al
de l</w>
hea da
lec ture</w>
f ly</w>
an k
P hi
kil led</w>
benef its</w>
assi gn
tr a</w>
sp r
happ i
ne ar
e en</w>
ar gu
well -
the me</w>
eng th</w>
Y ok
at su
ou ri
ou l</w>
g ent
c t
tee th</w>
su itable</w>
lea ving</w>
Fe bruary</w>
some time</w>
i gn
fa ir</w>
W </w>
poli cy</w>
ap o
si ght
vi l</w>
inv ited</w>
top ics</w>
sh e
6 0</w>
Ger many</w>
@ </w>
su al</w>
en e
auth or</w>
swee ts</w>
suff ering</w>
RF ID</w>
tion ally</w>
ster ed</w>
on .</w>
it ali
exc ell
tu al</w>
pati ent</w>
lyri cs</w>
muse um</w>
Hok kai
E S
Fr ance</w>
tran sp
our selves</w>
ep iso
over seas</w>
stru gg
exhau sted</w>
l ines</w>
draw ing</w>
B ud
rememb ered</w>
for ever</w>
b il
view s</w>
nood les</w>
appe ar</w>
sub jects</w>
le ct</w>
behavi or</w>
A sian</w>
d el
part ner</w>
2 nd</w>
poli cies</w>
stom ach</w>
val ue</w>
mi ssed</w>
dr op</w>
all owed</w>
prac ticing</w>
cu st
mu m</w>
uni versi
ear n</w>
appropri ate</w>
m bo
n ose</w>
ne sday</w>
recor d</w>
e aten</w>
w all</w>
car ry</w>
ca ses</w>
l and
. I</w>
3 rd</w>
ur ch</w>
man ager</w>
be long</w>
ani mation</w>
vi ol
se ction</w>
degre es</w>
b ag
for d</w>
Y a
1 7</w>
conveni ence</w>
s sive</w>
chat ting</w>
F a
s qu
gla sses</w>
est s</w>
qui et</w>
op pos
5 0
・ ・
resour ces</w>
sti cs</w>
effec ts</w>
care fully</w>
O N</w>
Hokkai do</w>
A M
includ e</w>
O M
ex t</w>
la dy</w>
every where</w>
om i
difficul ty</w>
G ol
transl ated</w>
th i
emb arra
Okin awa</w>
te sting</w>
ok u</w>
j ing</w>
vari ety</w>
ar m</w>
ly .</w>
lear ners</w>
I s
flu </w>
cir cu
sour ce</w>
Na tional</w>
sh ape</w>
scre en</w>
recomm ended</w>
ou n</w>
minu te</w>
magaz ine</w>
str ang
st ep
f li
a verage</w>
vi a</w>
al y</w>
ur ed</w>
ad ded</w>
F or
l ying</w>
S ch
pres ents</w>
la ge</w>
re view</w>
man agement</w>
fanta stic</w>
A c
H an
doll ars</w>
T ak
opport unities</w>
gra mma
M an
frequ ently</w>
i di
opini ons</w>
extre mely</w>
Jo h
supp ose</w>
cap ital</w>
d ad</w>
help ing</w>
U R
par ent</w>
cal m</w>
hob bies</w>
No ve
grand mother</w>
ev entu
excell ent</w>
strong ly</w>
re ma
o ha
ad vi
k id</w>
E N
I V</w>
be l
sk ype</w>
g as</w>
forma l</w>
a tive</w>
2 1</w>
h ang
N e
fe ar</w>
ni ght
ne arly</w>
min ation</w>
r an
any where</w>
clean ing</w>
T ha
ag re
S en
In dia</w>
8 0</w>
ti </w>
sm oo
visi ting</w>
foo t</w>
ani mal</w>
fu el</w>
oshi ma</w>
r ent</w>
doub t</w>
sh u
T om
cr ying</w>
concer ned</w>
p ac
ch an
ta sk</w>
plan ned</w>
super market</w>
stra tion</w>
hi stor
Rus sia</w>
umb rel
al bu
N u
fla v
bu n
d less</w>
chall eng
st ar</w>
so ft</w>
presi dent</w>
G oo
eventu ally</w>
Vi et
shr ine</w>
up set</w>
Americ ans</w>
s low</w>
hesi t
colleag ue</w>
absolu tely</w>
compli cated</w>
ha ir
te en</w>
sy mp
o ds</w>
heada che</w>
fa il
as king</w>
or i</w>
man age</w>
ro b
ra tion</w>
lit ary</w>
cer tain
prote ct</w>
ow ner</w>
wil ling</w>
c ycle</w>
th ly</w>
t ent</w>
n ation</w>
influ ence</w>
2 2</w>
&amp ;
f light</w>
ne ver
graph y</w>
Eur ope
pati ents</w>
Nove mber</w>
rela xed</w>
ch en</w>
Japan ese
ra men</w>
in gre
S i
pie ces</w>
per fec
motiv ation</w>
fin ding</w>
butt on</w>
attra ctive</w>
dem ic</w>
P r
I S
st ate
tow ard</w>
I C
serv ices</w>
os ed</w>
ac y</w>
ti me.</w>
de sk</w>
enjo y
re duc
Inter national</w>
d v
s ort</w>
pr oud</w>
he ar
A N</w>
1 9</w>
tow ards</w>
ur sday</w>
wa sh</w>
vi ously</w>
rea lity</w>
la tions</w>
bu d
U N
correc tly</w>
effor ts</w>
di g
thous and</w>
person ality</w>
val u
mos tly</w>
y o
fer ence</w>
pla ys</w>
on ed</w>
engine ers</w>
ingre di
a sh
discu ss</w>
com par
logi es</w>
materi al</w>
di o</w>
p ing</w>
me als</w>
wri ter</w>
comm erci
depen ds</w>
C ity</w>
se min
sun ami</w>
K ong</w>
t elling</w>
rea ched</w>
ha haha</w>
respon sibility</w>
li sh</w>
a ds</w>
Wed nesday</w>
es day</w>
cover ed</w>
su it</w>
sh ower</w>
grou ps</w>
pic ked</w>
near by</w>
n one</w>
fi x</w>
di r
cust om</w>
adul t</w>
qu ar
il and</w>
deta ils</w>
war ds</w>
P S</w>
H owever</w>
en ess</w>
ca kes</w>
ad dress</w>
wor st</w>
us age</w>
nor m
st ant</w>
de v
stand ard</w>
r ying</w>
f oun
r are</w>
M c
dra mas</w>
g ers</w>
ite ms</w>
pe ace</w>
ver s
un less</w>
sp ir
memori ze</w>
blo g
th row</w>
no vels</w>
B ra
adul ts</w>
P i
fi gh
sur roun
pp ed</w>
1 .
fun ction</w>
temp or
swi m</w>
sur f
r ound</w>
de cl
dr ed</w>
N ago
shir t</w>
car to
bi gger</w>
P ri
tra ins</w>
syste ms</w>
jo ke</w>
sur ve
di d
transp or
gla ss</w>
trou b
situ ations</w>
sent ence
sal ary</w>
lap top</w>
pr ay</w>
or ing</w>
ne l</w>
mo del</w>
increa sed</w>
di aries</w>
au tom
Twi tter</w>
numb ers</w>
tre at</w>
cont ents</w>
ar ch
wonder ed</w>
2 4
the sis</w>
on to</w>
y og
never theless</w>
lic ense</w>
pleas ant</w>
b y
appe ar
al .</w>
inv est
ri ding</w>
2 3</w>
te en
oc ca
sp read</w>
le y</w>
plea sure</w>
my ster
for ms</w>
c over</w>
beli ev
st ro
st ance</w>
sight seeing</w>
vol u
or g</w>
kan ji</w>
hun ting</w>
g ar</w>
vide os</w>
x es</w>
May be</w>
oper ation</w>
be lon
benef it</w>
be ar</w>
tele vision</w>
che mi
T -
lab or
la w
B ei
r or</w>
expla ined</w>
er t</w>
ac cent</w>
tast y</w>
t ool</w>
in depen
man u
f ts</w>
A L
war ming</w>
H u
fac tors</w>
ent ine</w>
sub titles</w>
fu </w>
ex tra</w>
constru ction</w>
ch urch</w>
A f
oha ma</w>
D on
mess ages</w>
Nago ya</w>
pp er</w>
A h</w>
reli eved</w>
we t</w>
reason able</w>
y u</w>
tra ck</w>
t an
su rely</w>
regi stered</w>
ach e</w>
d om
treat ment</w>
ang hai</w>
in si
import ance</w>
cow or
con sequ
N ew
A pp
ath on</w>
F in
s :</w>
citiz ens</w>
y ellow</w>
hun dred</w>
e qu
s at</w>
com ics</w>
I T</w>
mi litary</w>
E ar
de cor
fac e
b right</w>
wor e</w>
effici ent</w>
schoo l
natur ally</w>
pro duce</w>
eg g</w>
R E
sur ance</w>
ac cess</w>
Gol den</w>
tic kets</w>
G i
tra v
oppos ite</w>
v ation</w>
pos t
Se oul</w>
int el
kin der
che aper</w>
sup er</w>
we stern</w>
pl ural</w>
fi ll</w>
disc us
aw k
r ow
e mer
er -
certain ly</w>
umbrel la</w>
basi cally</w>
t an</w>
R a
H ong</w>
adv anced</w>
prac ticed</w>
kore an</w>
explan ation</w>
exhi bi
Bud d
Tu esday</w>
ga ther
Goo gle</w>
Yok ohama</w>
vic ti
acci dents</w>
re st
ra b
o logy</w>
musi cal</w>
compu ters</w>
ch er</w>
t le</w>
pi cal</w>
ac c
200 4</w>
ri se</w>
norm ally</w>
conversa tions</w>
Tha iland</w>
s ..</w>
kit chen</w>
w ay
dama ge</w>
Th ursday</w>
19 8
w ood</w>
te ars</w>
Europe an</w>
e ment</w>
de p
n or</w>
M ini
. co
in d
al u
high ly</w>
200 5</w>
C la
th ro
regi on</w>
p op</w>
other wise</w>
in ve
est ab
ad ed</w>
sc ener
sal t</w>
pi zz
00 0
aca demic</w>
any body</w>
M t</w>
col lec
appli ed</w>
over come</w>
al d</w>
C ar
high -
dist in
atta ched</w>
inde ed</w>
W ee
mon o</w>
je ctive</w>
advant ages</w>
r ar
O ne</w>
s ang</w>
imp le
gen cy</w>
N ot</w>
F ir
Wh y</w>
G r
A sia</w>
ther n</w>
ill ance</w>
d ent
se .</w>
prac ti
p ot</w>
fa ster</w>
f our
X X
psycho logy</w>
mean ings</w>
wi kipe
Bei jing</w>
techno logies</w>
smo ke</w>
g a</w>
dr opped</w>
lat est</w>
all ow
Fuku shima</w>
ton gue</w>
pre cious</w>
gui de</w>
r os
il ing</w>
cla ssi
be ef</w>
pos si
do c
O n
pu tting</w>
ir o</w>
T hai</w>
pot ential</w>
si gn
Th ank</w>
K u
produc tion</w>
difficul ties</w>
l oud</w>
st ars</w>
musi ci
ei ght</w>
arri ve</w>
ex pl
it a</w>
c o</w>
be t</w>
g en</w>
ch air</w>
Har ry</w>
Y O
per cent</w>
text book</w>
e th
bir d</w>
G ener
comp osi
rain ed</w>
ple ased</w>
bo ar
Y our</w>
p d
men u</w>
laugh ing</w>
G ood</w>
C up</w>
wa ited</w>
conne ct</w>
adverti se
su res</w>
f oc
concer n</w>
mi ssing</w>
ta x</w>
jo gging</w>
in ce</w>
f are</w>
cre di
Sh anghai</w>
sh ine</w>
de b
tur ning</w>
solu tions</w>
denti st</w>
2 7
sugge sted</w>
fac tory</w>
sal e</w>
liter ature</w>
hand le</w>
fre sh
Val entine</w>
A fri
universi ties</w>
ty pical</w>
sc ary</w>
s in</w>
blossom </w>
D ra
p hi
or o</w>
ex ic
4 0
clou dy</w>
albu m</w>
se x</w>
man aged</w>
M al
tt e</w>
Ha wai
transpor tation</w>
per sons</w>
O O
com mu
al ing</w>
rar ely</w>
en i
consider ing</w>
drin ks</w>
s an</w>
str ate
ing ly</w>
ra ise</w>
da iry</w>
O k
off ic
200 6</w>
surve illance</w>
stitu te</w>
lim it</w>
go als</w>
fall ing</w>
el der</w>
confi dent</w>
c ried</w>
fil ms</w>
G e
nood le</w>
condi tions</w>
up on</w>
particip ate</w>
her e.</w>
eal and</w>
d ney</w>
sub way</w>
&apos; I</w>
employ ment</w>
to i
cent ury</w>
hum ans</w>
3 3
thr ough
can cer</w>
arr ang
lead er</w>
n ap</w>
dro ve</w>
qua li
p tion</w>
P u
pos ted</w>
che er</w>
off icial</w>
oun ds</w>
h ic
touri sts</w>
semin ar</w>
cont ext</w>
gol f</w>
at ors</w>
answ ers</w>
2 8
pla ced</w>
cri sis</w>
encoura ge</w>
ac ks</w>
emp ha
ly mp
fa ul
curi ous</w>
ch ances</w>
lin k</w>
bir ds</w>
secre t</w>
Par k</w>
u ti
shou l
moun tains</w>
S pe
re ve
pro file</w>
perfec tly</w>
fir m</w>
de ca
scener y</w>
ma ils</w>
anci ent</w>
us er</w>
tw enty</w>
fl at</w>
G a
org /
kinder gar
Nor th</w>
y er</w>
sing ly</w>
ess ential</w>
be at</w>
arti st</w>
to -
ri d</w>
happ ening</w>
s ore</w>
advant age</w>
k araoke</w>
az z</w>
D u
ro l
n oun</w>
daugh ters</w>
rea m</w>
in dic
mot or
laugh ed</w>
her self</w>
st y</w>
G ra
fav ouri
int ment</w>
th at
prom ise</w>
por k</w>
le gs</w>
J e
os si
men tion</w>
p ul
circu m
radi o
comm a</w>
than k
os hi</w>
ell ed</w>
M exic
6 .
fa il</w>
sh all</w>
pow erful</w>
on e-
hon est
bru sh</w>
P ot
pronoun ce</w>
sh ar
Mi y
poli te</w>
stron ger</w>
H ol
v ey</w>
li pp
cour ses</w>
stra ight</w>
m all</w>
in surance</w>
br and</w>
sh own</w>
accep ted</w>
O lymp
hop e
ad dic
V an
thro at</w>
pa st
er gy</w>
t sunami</w>
poli tical</w>
T S</w>
affec ted</w>
wa shing</w>
surf ing</w>
H app
tast es</w>
e ce</w>
exi st</w>
pizz a</w>
l oss</w>
goo d
ca uses</w>
thin ks</w>
signific ant</w>
rep lied</w>
in o</w>
v or
mul ti
vil lage</w>
health care</w>
alter native</w>
sh el
2 9
friend ship</w>
3 D</w>
sm all
p ages</w>
ari ly</w>
d am
know ing</w>
ju mp
g ery</w>
favouri te</w>
Be cause</w>
Sch ool</w>
mo di
7 0</w>
p ink</w>
dir ty</w>
In dian</w>
Fu ji</w>
I tal
sh ap
gre w</w>
fru it</w>
op ening</w>
S pr
y ama</w>
deta il</w>
con cept</w>
ai m</w>
in k
sel ling</w>
invol ved</w>
di a.
c ure</w>
Fir st</w>
en -
a live</w>
stu ff
sp er
electr onic</w>
eg gs</w>
2 6
ni a</w>
g ate</w>
fe et</w>
tu re
charac teri
2 9</w>
de f
un g</w>
t ells</w>
announ ced</w>
un a</w>
exhibi tion</w>
dest ro
is ing</w>
ch an</w>
u si
att le</w>
state ment</w>
ro ll</w>
hor ri
ha m
er a</w>
or es</w>
class mate</w>
p ity</w>
pur ch
mm m</w>
m ers</w>
impres sive</w>
back ground</w>
abi lities</w>
requi res</w>
high est</w>
f ro
pap ers</w>
sa ke</w>
for ced</w>
spea ks</w>
twi tter</w>
g in</w>
al -
ta sks</w>
beli eved</w>
Z ealand</w>
wikipe dia.
tru st</w>
ot ing</w>
it ting</w>
ac u
Joh n</w>
P M</w>
B a
suff ici
col ors</w>
to day.</w>
pro f
ma ss
Ital y</w>
in come</w>
cor ner</w>
S N
ic y</w>
be d
recogni ze</w>
par ties</w>
en .
pe ace
occur red</w>
St ar
meth ods</w>
humi d</w>
equi p
ag ue</w>
radi ation</w>
pri ority</w>
ac tions</w>
T or
the ma
sti ck</w>
L O
2 3
Dis ney</w>
dig ital</w>
appear ance</w>
cr os
op h
disc ri
af ford</w>
O f</w>
sugge st</w>
pol lu
pre ss</w>
ca sual</w>
so y</w>
st o
disc overed</w>
be ans</w>
ro de</w>
.ht m</w>
inno va
effici ency</w>
tele phone</w>
m ary</w>
individu als</w>
enti re</w>
proper ly</w>
cir cle</w>
pri ces</w>
or ter</w>
6 5</w>
we st</w>
th in</w>
D a
los ing</w>
re tire
li ghts</w>
her o</w>
Nu clear</w>
comp are</w>
b an</w>
a .</w>
A s</w>
A P
valu able</w>
pain ful</w>
e di
through out</w>
audi ence</w>
inter pre
fru str
un comfortable</w>
st one</w>
sa ving</w>
prom ised</w>
figh ting</w>
a mb
t ro
ingredi ents</w>
P a
pa ssing</w>
9 0</w>
lu c
as se
ve hic
coo per
c .</w>
mi xed</w>
includ es</w>
I M
C o
broad ca
pos sibility</w>
i ous</w>
bott om</w>
l ou
episo de</w>
N O
c ting</w>
face book</w>
comple x</w>
suff er</w>
d y
- year-old</w>
produc ed</w>
rela xing</w>
wi ki</w>
origin ally</w>
l ot
rep orted</w>
pr os
l o</w>
enjoy able</w>
desi re</w>
cou ver</w>
ce an</w>
apo logi
li gh
br an
su gar</w>
requ est</w>
li </w>
arch ite
spir it</w>
T r
mar ry</w>
App le</w>
faci lities</w>
Te ch
h all</w>
dis like</w>
Z </w>
ing -
desi gned</w>
d ation</w>
coun ter</w>
th is
exc use</w>
om en
le -
s and
main tain</w>
sur gery</w>
mu ra
con sul
bur ger</w>
ac tors</w>
ac qu
Su mmer</w>
p ed</w>
cli ck</w>
at oes</w>
z i
oo t</w>
ar gue</w>
religi on</w>
mar ks</w>
disp lay</w>
c ket</w>
b on</w>
ver se</w>
ed om</w>
ca stle</w>
ta xi</w>
g or
w anese</w>
4 5</w>
ex per
Can a
aw are</w>
＾ </w>
Sy dney</w>
b on
in f
a de</w>
u m
aspe cts</w>
o very</w>
jour ney</w>
fac es</w>
C or
TO </w>
6 0
Lang u
ci al</w>
go v
tur ns</w>
sli ghtly</w>
cep tion</w>
l en
e m
tu be</w>
ta sted</w>
serv ation</w>
hea vi
awk ward</w>
rec over</w>
hol ding</w>
ven tion</w>
na tion
come dy</w>
bott le</w>
x x
sp ot</w>
pa ce</w>
bal ance</w>
un t</w>
g as
se x
re fre
discus sion</w>
it ation</w>
Spr ing</w>
si on
kindergar ten</w>
assign ment</w>
u t
su e</w>
2 .
grap h</w>
be side</w>
Phi lipp
ph en
cri tici
ch amp
c ture</w>
mo to</w>
Van couver</w>
retire ment</w>
ass oci
Pot ter</w>
S an</w>
leg al</w>
f ans</w>
e duc
Tai wanese</w>
survi ve</w>
no ise</w>
t al</w>
S te
wat er
fa sc
rela tively</w>
g ly</w>
coun tr
bo iled</w>
Mi cha
st -
fail ure</w>
2 8</w>
pre h
pl es</w>
re fu
mar athon</w>
Tu be</w>
I K
Hawai i</w>
con st
all ows</w>
ok u
fe atures</w>
dem and</w>
rain s</w>
hea d
tar get</w>
sh ot</w>
n am</w>
enter tain
z es</w>
direc tor</w>
4 th</w>
pres sion</w>
engine er</w>
we i
r ude</w>
fini shing</w>
We stern</w>
s en</w>
err ors</w>
cl ing</w>
om a</w>
condition er</w>
on e.</w>
iP ad</w>
he he</w>
e ars</w>
al es</w>
2 6</w>
requ ire</w>
dor mit
Wee k</w>
sol ved</w>
k y</w>
en th
clean ed</w>
N Y</w>
pd f</w>
p en</w>
z u</w>
sen si
co- workers</w>
them .</w>
da i</w>
un usual</w>
fi xed</w>
Y ama
ide al</w>
anxi ous</w>
L u
tempor ary</w>
fre edom</w>
A re</w>
conne cted</w>
che cking</w>
br ings</w>
regar ding</w>
n ote
k o
elec tion</w>
docu ments</w>
ach es</w>
re lease</w>
fre e
con test</w>
bor r
C H
3 .
sear ching</w>
composi tion</w>
2 00</w>
i st</w>
emp ty</w>
app le</w>
Micha el</w>
br own</w>
thin g
str ength</w>
ra ised</w>
e k</w>
S or
pri mary</w>
p ha
tou ched</w>
C an</w>
fore cast</w>
mean ing
d ant</w>
snow ing</w>
b its</w>
imp act</w>
con tains</w>
spi ri
prac tical</w>
ad op
br ow
af fect</w>
ke y
ex </w>
cl er
sever e</w>
hur ry</w>
bud get</w>
7 0
lea ding</w>
en. wikipedia.
sal on</w>
direc tion</w>
ir ri
Par is</w>
troub les</w>
refer ence</w>
p it
- up</w>
pe i</w>
bu cks</w>
f lies</w>
C E
too th</w>
r ange</w>
g ation</w>
boar ding</w>
pas sion</w>
bath room</w>
aw ful</w>
person ally</w>
con tr
con duc
z on</w>
p atter
English -
d it</w>
respon sible</w>
cell phone</w>
ad ap
ki ly</w>
hor se</w>
co- worker</w>
phen omen
horri ble</w>
gr own</w>
be an</w>
M in
priv acy</w>
direc t</w>
Al so</w>
sear ched</w>
oc cu
et ings</w>
fasc in
app ed</w>
y ond</w>
st ances</w>
net work</w>
m ur
small er</w>
prin ci
o bli
th y</w>
ant a</w>
neigh bor
esc ape</w>
be ings</w>
D o
techni cal</w>
interest s</w>
har d
bow l</w>
sp are</w>
flu ent</w>
.co .jp</w>
ga ined</w>
for est</w>
dre w</w>
you .</w>
partic ularly</w>
ini ti
in se
gg ed</w>
now .</w>
M S
DV Ds</w>
5 00</w>
histor ical</w>
con ference</w>
Chri sti
di um</w>
contra st</w>
com preh
S pain</w>
sho ck</w>
fiel ds</w>
A d
p at
inno vation</w>
a k</w>
I I</w>
iP od</w>
climb ing</w>
ju ku</w>
wi ld</w>
l en</w>
edu ca
Par ty</w>
the ory</w>
g l
t our
p al
ma thema
ob viously</w>
n ine</w>
honest ly</w>
e ye
st able</w>
for gotten</w>
wa it
provi ded</w>
T ra
E R</w>
ok o</w>
imple ment
ex tent</w>
clos er</w>
ch est
car ri
wi de
follow ed</w>
ev alu
inde x
Ti me</w>
P o
car ried</w>
Hir oshima</w>
remin ds</w>
no i
le ts</w>
S ak
seas es</w>
respon se</w>
all ed</w>
sou ven
class room</w>
S .</w>
enth usi
B us
me ters</w>
ex -
employe e</w>
coun t</w>
mit ted</w>
estab li
cri min
at su</w>
dv ant
ra w</w>
ba se</w>
achi ev
2 7</w>
n on
lo cation</w>
w oo
toi let</w>
be yond</w>
Ko be</w>
deter min
cou sin</w>
ay a</w>
tre ated</w>
amb i
manu fac
commerci al</w>
bur den</w>
a bu
nor th</w>
dis agree</w>
Australi an</w>
p ack
intel lig
ce ment</w>
lat ter</w>
coo ki
ch os
T an
suff ered</w>
indu stri
don e
succe ed</w>
sol ar</w>
relation ships</w>
lo aded</w>
bic y
an tic</w>
u ms</w>
impro vement</w>
h ell</w>
stre ets</w>
inci dent</w>
fru its</w>
v a</w>
fac ing</w>
e vi
fi shing</w>
se ssion</w>
k g</w>
cap itali
H mm</w>
s an
luc kily</w>
- in-
n ic
ha ha
E -
B ar
sugges tion</w>
lab </w>
W hi
r a</w>
S ci
victi ms</w>
poli tics</w>
mb le</w>
com mon
as su
J a
sp elling</w>
di </w>
and -
we ap
or al</w>
SN S</w>
wor ld
b ow</w>
contr ary</w>
par king</w>
cli mate</w>
publi shed</w>
cor por
sa i</w>
k ne
Japan .</w>
week ends</w>
pla stic</w>
di seases</w>
B A</w>
9 0
s oo
re -
S oci
swe at</w>
st ood</w>
discu ssed</w>
or ting</w>
che ese</w>
G o
jo b
e li
cri me</w>
coura ge</w>
ve .</w>
sh owing</w>
dormit ory</w>
ap art</w>
contribu te</w>
C he
A i
t rea
experi ment</w>
wor l
air plane</w>
m it</w>
Happ y</w>
tin y</w>
suffici ent</w>
gramma tically</w>
at om
allow een</w>
a. m.</w>
ar ity</w>
ni vers
jo y</w>
pre dic
fun ds</w>
ag ers</w>
anno ying</w>
t all</w>
con ta
s er</w>
pl enty</w>
nei ther</w>
ma g
disp la
sl ang</w>
la ke</w>
cer ti
sin cer
mp tion</w>
ite m</w>
b om
s outh</w>
labor atory</w>
ate ful</w>
ju ice</w>
ex ten
ath le
ad di
st .</w>
phi los
n ar
col der</w>
kin dness</w>
T ur
Budd hi
scienti fic</w>
dial e
step s</w>
recor ded</w>
ca mp</w>
Viet nam</w>
n it
great ly</w>
pri ze</w>
yog a</w>
indepen dent</w>
con vin
c ow</w>
ver bs</w>
re vi
per form</w>
blo om</w>
g ro
en sure</w>
dent ally</w>
i ll</w>
room mate</w>
trav elling</w>
O ba
se tting</w>
cl in
am ed</w>
ac ting</w>
Y es</w>
includ ed</w>
too ls</w>
provi des</w>
go ld</w>
g are
TH E</w>
Cana dian</w>
sudd en</w>
off ered</w>
ac tre
P la
trans fer</w>
e ager</w>
S o
decrea se</w>
camp us</w>
pre gn
compla in</w>
book store</w>
li qu
cre dit</w>
Tai pei</w>
l er
e sti
champ i
O r
N E
sun shine</w>
s op
repe at</w>
encoura ged</w>
disa dvant
bi o
r ou
un like</w>
remin ded</w>
h oku</w>
Langu age</w>
IE L
T su
ki mono</w>
jud ge</w>
je c
refer ences</w>
pain t</w>
ch .</w>
b erry</w>
b atter
Kan ji</w>
desi gn
l ands</w>
i a</w>
adm it</w>
mi x</w>
borr owed</w>
su s</w>
os ing</w>
enthusi as
. org/
j ac
autom a
ga ther</w>
appe ars</w>
a st
a head</w>
Pe op
5 th</w>
i -
embarra ssed</w>
seas ons</w>
prepar ation</w>
on y</w>
beg un</w>
speci ali
re fer</w>
tu ally</w>
C ha
sp icy</w>
re main</w>
fe sti
sc ale</w>
it es</w>
E i
gr ateful</w>
faul t</w>
wa shed</w>
view ing</w>
su m</w>
s or</w>
ju </w>
ap par
ag a</w>
I mp
Af ter</w>
peace ful</w>
neighbor hood</w>
chat ted</w>
cop y</w>
ri ghts</w>
poe m</w>
l li
er al</w>
No .
web sites</w>
sa tion</w>
al ty</w>
B hu
thir ty</w>
pa th</w>
govern ments</w>
fin ger</w>
E ast</w>
supp ly</w>
sou l</w>
mat ely</w>
mi so</w>
In done
z en</w>
j un
bag s</w>
1 -
sta irs</w>
scen es</w>
p il
. gov
wh ere
in correct</w>
sentence .</w>
ap ers</w>
L E
re fri
musc le</w>
un able</w>
hesit ate</w>
cra m</w>
clo thing</w>
sy mbo
ques tion
pot ato</w>
p un
lon g-
ak a</w>
si x
att ack</w>
qu ick</w>
call s</w>
f are
surpri sing</w>
appo intment</w>
col or
ci gare
life style</w>
S H
C ali
sk i</w>
j azz</w>
en vy</w>
Don ald</w>
travel ed</w>
rep orts</w>
k ura</w>
fre ely</w>
educa tional</w>
bi ll</w>
ar my</w>
wal let</w>
nivers ary</w>
descri b
a o</w>
E very
h o</w>
St ud
S ince</w>
Peop le</w>
Hi gh</w>
n os
gu ests</w>
econom ics</w>
ea st</w>
b ands</w>
Ear th</w>
co at</w>
Oba ma</w>
m my</w>
de ad
day ,</w>
teri a</w>
ing ing</w>
wind ows</w>
kore a</w>
hou </w>
z e
organi zation</w>
blo om
chin a</w>
begin s</w>
200 0</w>
te e</w>
gi fts</w>
follow s</w>
I T
so -
ne ck</w>
m in</w>
keep s</w>
bo at</w>
T emp
di sor
. blog
carto on</w>
fun ctions</w>
de pression</w>
dama ged</w>
y ..</w>
begin ner</w>
pri me</w>
im mi
cou se</w>
ar ms</w>
ar in</w>
con gr
mon it
in te
smoo thly</w>
m ir
climb </w>
underst and
int end</w>
K ing</w>
A B
f low</w>
en .</w>
ab e</w>
work place</w>
mura i</w>
mass age</w>
environ mental</w>
P oli
Li fe</w>
A ma
lo ver</w>
dep end</w>
W ar</w>
IEL TS</w>
H alloween</w>
or d</w>
de te
c ine
Sor ry</w>
un known</w>
stu ck</w>
sto ck</w>
S ha
mini ster</w>
grand father</w>
fac tor</w>
pop ul
ot ed</w>
3 1</w>
ski ing</w>
refri ger
200 3</w>
v als</w>
hosp it
hope fully</w>
un happy</w>
se lected</w>
ma gic</w>
flav or</w>
Tech no
H on
G en
s and</w>
chos en</w>
appreci ated</w>
You Tube</w>
3 -
d ency</w>
comple ted</w>
sn acks</w>
d al</w>
A b
happi ly</w>
fl ying</w>
na ment</w>
mar ke
ma ke
h in
en.wikipedia. org</w>
thous ands</w>
Ju st</w>
earthqua kes</w>
conne ction</w>
Gener ation</w>
p ack</w>
le y
fac ed</w>
du ces</w>
an -
aga wa</w>
vege table</w>
pl us</w>
inve sti
du mp
emer gency</w>
age ing</w>
S anta</w>
K en
r hy
noi sy</w>
Mac </w>
Cali for
ce .</w>
Is land</w>
secon ds</w>
pay ing</w>
H ak
tri al</w>
lar gest</w>
rom antic</w>
pp ing</w>
ac compli
Afri ca</w>
ro ads</w>
re present
mat ters</w>
fare well</w>
equip ment</w>
I N</w>
E N</w>
8 0
th ick</w>
sch ol
re pair</w>
wel fare</w>
stra w
de man
ac ts</w>
a ti
tal ks</w>
m ouse</w>
H er
stat us</w>
i dly</w>
D S</w>
par ag
an nu
dra ma
I S</w>
k k
Fuku oka</w>
BB Q</w>
distin gui
depen ding</w>
o cean</w>
du ty</w>
Di ary</w>
p al</w>
ot a</w>
dou ble</w>
c ate</w>
ve -
pre mi
ing ,</w>
call ing</w>
it ted</w>
bu </w>
p ants</w>
mach ines</w>
in credi
A sa
z er
vi d</w>
t ower</w>
radio active</w>
D ai
li zation</w>
tra dition</w>
ti re</w>
t su
t ori
sa mp
pl u
bab ies</w>
Kore ans</w>
wi shes</w>
reg ularly</w>
sensi tive</w>
reci pe</w>
irri t
and arin</w>
C P
ter y</w>
ssi ons</w>
ac qua
A ll</w>
pu sh</w>
ab sor
to y</w>
gra des</w>
R y
ter r
rab bit</w>
magaz ines</w>
mor n
heavi ly</w>
fer red</w>
ca f
L ove</w>
p an</w>
n ick
consider ation</w>
com for
ty .</w>
se lect</w>
opp on
m ic</w>
le g</w>
s na
e ded</w>
te dly</w>
li d</w>
L et</w>
sel dom</w>
scienti sts</w>
k in</w>
classi cal</w>
and a</w>
S ome
R ob
tea ms</w>
ri sing</w>
any time</w>
2 -
past a</w>
om y</w>
si </w>
sal ad</w>
wi t
effec tively</w>
consi sts</w>
na me
agre ed</w>
E L
sil ly</w>
kin dly</w>
er no
S er
smi ling</w>
Philipp ines</w>
Ha ve</w>
f ying</w>
ex tra
・・ ・</w>
thre w</w>
ill ness</w>
de vice</w>
dang er</w>
s g
rap idly</w>
inj ured</w>
wi s
forma tion</w>
bicy cles</w>
at temp
se ly</w>
n i</w>
laun dry</w>
ash amed</w>
ac cu
W ri
tal ent</w>
a unt</w>
1 000</w>
sch e
h oo
dest ination</w>
c ant</w>
thin g.</w>
motiv ated</w>
ob ject</w>
coun ter
u t</w>
tru ly</w>
ta tions</w>
sa ki</w>
reg ard</w>
pl ate</w>
broad cast</w>
stre ssed</w>
some what</w>
lo g</w>
requi re
To hoku</w>
clin ic</w>
P ol
wri tting</w>
war mer</w>
lear nt</w>
erno by
i mm
appro ach</w>
re sume</w>
ju mp</w>
great est</w>
aspe ct</w>
cho ices</w>
list s</w>
entertain ment</w>
ag i</w>
a shi</w>
st ence</w>
A T</w>
sh ment</w>
pr ot
fa i
confu sing</w>
M y
M r
H ouse</w>
Ch ar
cri tical</w>
frustr ated</w>
circum stances</w>
atten ding</w>
T ea
E mp
a side</w>
N ar
sol di
four th</w>
an niversary</w>
imag es</w>
re place</w>
n ic</w>
N ow</w>
far m</w>
arti sts</w>
Singap ore
p ort
imp lies</w>
i ed</w>
youn gest</w>
di stri
ang er</w>
L it
Califor nia</w>
w ing</w>
lo g
compreh en
ac i
p uni
Sen dai</w>
newsp apers</w>
ma d</w>
ha bits</w>
be cu
IN G</w>
A G
w are</w>
su ici
note book</w>
m ap</w>
dd en</w>
ari an</w>
o h</w>
expen ses</w>
cat eg
W il
ma ss</w>
exerci ses</w>
C ent
s sic</w>
per formed</w>
deli ver
a tion
3 00</w>
• </w>
surpri singly</w>
ti mi
assi stant</w>
w er</w>
st ands</w>
g i</w>
fortun e</w>
ar i</w>
S U
k .</w>
che ck
s ence</w>
ob vious</w>
j a
a meric
R u
ta il</w>
sh ared</w>
qu e
proce sses</w>
ac ted</w>
od d</w>
tr end</w>
phenomen on</w>
c rac
bla ck
OM G</w>
un believ
n oun
disc ount</w>
S F
c m</w>
we al
r y
advertise ment</w>
M os
E d
sha me</w>
k ness</w>
j am</w>
addic ted</w>
trou ble
s al</w>
he ight</w>
i sin
ex e
M atsu
wis dom</w>
ur o</w>
rec ep
particip ated</w>
e y
bri dge</w>
T est</w>
you th</w>
occur </w>
3 5</w>
, 000
in sp
over time</w>
mo vement</w>
inst ant</w>
hal f
f c
ex act</w>
hop ing</w>
4 5
neighb or</w>
A ni
ra g
co ck
O n</w>
tom ato</w>
sti cks</w>
sa ved</w>
oph y</w>
R ea
. pdf</w>
ley ball</w>
any ways</w>
th .</w>
o be
sh aring</w>
gather ed</w>
sun g</w>
M e</w>
W at
wor rying</w>
as sume</w>
ac cur
ab sent</w>
touri st</w>
pu b</w>
jo kes</w>
he art
con sci
bre e
s oooo
manufac tur
A ki
sing ular</w>
lou dly</w>
inter n
cu tive</w>
co de</w>
H K</w>
separ ate</w>
introduc ing</w>
ce ssi
cos tu
actu al</w>
gent le</w>
v s</w>
un cle</w>
so ba</w>
on a</w>
maj ority</w>
d ,</w>
ti ps</w>
is m</w>
ent ure</w>
goo d-
day time</w>
a id</w>
lo ck</w>
M or
sc ar
recogni zed</w>
mar kets</w>
H un
← </w>
r out
in y</w>
ar ts</w>
N ote</w>
sub si
err or</w>
O K
lar ger</w>
U .
tr op
pu zz
pro jects</w>
mo thers</w>
mea sures</w>
de my</w>
M ari
u u
trans lat
as ks</w>
val ues</w>
o ciation</w>
mean while</w>
mathema tics</w>
cent ral</w>
al arm</w>
Gre at</w>
re sted</w>
r ose</w>
ge ous</w>
p. m.</w>
ho o</w>
g ata</w>
stre ss
sa v
per spe
imagin ed</w>
attra cted</w>
reduc ed</w>
colle ct</w>
cli ent</w>
cler k</w>
ad mini
de fe
S an
ho le</w>
gr and</w>
Th en</w>
re move</w>
bu t
P S
Japanese -
J ack
ab les</w>
shoul der</w>
c ore</w>
Star bucks</w>
regar dless</w>
C N
sur face</w>
le vels</w>
emo tional</w>
cr oss</w>
si ck
pass age</w>
own s</w>
motor cycle</w>
gro cer
V E</w>
scri pt</w>
lu x
coo led</w>
b orrow</w>
An g
your s</w>
d ying</w>
cu tting</w>
bad ly</w>
Ch ernoby
g ap</w>
down town</w>
ak o</w>
ent ering</w>
d ..</w>
T om</w>
M use
imagin ation</w>
gener ations</w>
di strict</w>
ch ers</w>
vi sa</w>
reac tion</w>
nu ts</w>
al le
strugg ling</w>
poli tici
parag rap
influ enced</w>
bur n</w>
A ir
visi tors</w>
she et</w>
i son</w>
gre eting</w>
en h
d ome
n .
ent ing</w>
sugges tions</w>
regar ds</w>
up load</w>
o l</w>
. sg
hy dro
analy sis</w>
spr ings</w>
sk ating</w>
ru b
rela tive</w>
or ange</w>
fur nit
A C
su sta
mo ther
ch ap
for th</w>
chan nel</w>
run s</w>
r ental</w>
dre ssed</w>
desi gner</w>
A t</w>
tu tor</w>
soun ded</w>
fun ding</w>
brea th</w>
T ri
Mexic o</w>
Mal ay
G ir
A L</w>
ra k
hand some</w>
z oo</w>
shir ts</w>
examp le
establi shed</w>
En ergy</w>
color ful</w>
cine ma</w>
ak u</w>
vol leyball</w>
shap ed</w>
ma ma</w>
li t</w>
gu est</w>
use less</w>
tit led</w>
discri mination</w>
man ner</w>
hang ing</w>
gen i
ac </w>
.sg /
li ons</w>
et c.</w>
can cel
dev ices</w>
vir us</w>
ne g
custom s</w>
busin ess
bro thers</w>
S tre
S C
gre ater</w>
P al
Dra gon</w>
wide ly</w>
musici an</w>
ce i
y .
sing ers</w>
regi ster</w>
crea tive</w>
car r
p ure</w>
t wee
pro fit</w>
hun g</w>
fav or</w>
concer ns</w>
c el</w>
on omi
dis appeared</w>
cy cling</w>
bil lion</w>
after wards</w>
R O
P ower</w>
H e
t un
fall s</w>
emo tion</w>
C u
su sp
inter view
de sper
sil ent</w>
dru gs</w>
contra ct</w>
pass port</w>
k at
inv ite</w>
ari um</w>
ful l
doc tors</w>
divi ded</w>
Pre fecture</w>
se tt
pos se
gra ss</w>
gol den</w>
chocol ates</w>
b other</w>
tom mor
de ser
Fri ends</w>
teach es</w>
smi led</w>
poin ted</w>
determin ed</w>
anno yed</w>
sun day</w>
strate gy</w>
short age</w>
de ss
benef icial</w>
L A</w>
E ve</w>
Chernoby l</w>
const antly</w>
tour nament</w>
ent .</w>
der ing</w>
w as
pas sive</w>
er or</w>
attra ct</w>
é </w>
rea der</w>
prom o
gra mmer</w>
every time</w>
ev ol
ag ency</w>
ach ing</w>
sen ding</w>
f at
so on
rea ders</w>
sty les</w>
sand wi
ref ers</w>
li c</w>
actre ss</w>
Muse um</w>
sa y
common ly</w>
H el
su peri
nick name</w>
ma ker</w>
cla i
ci l</w>
am en</w>
th ri
sh orter</w>
pa ste</w>
hop ed</w>
ac com
a wake</w>
si sters</w>
rob ot</w>
resi dents</w>
resi dent</w>
pollu tion</w>
effici ently</w>
p he
gar b
do ors</w>
200 2</w>
un expected</w>
nu tri
lea ds</w>
cour t</w>
ser y</w>
marke ting</w>
l l
bo ther
S ou
appar ently</w>
s ac
re d
acqu ire</w>
li a</w>
su ally</w>
stitu tion</w>
ri di
gr an
Com m
volu me</w>
t w</w>
sh ad
k no
M other</w>
om s</w>
E du
transl ating</w>
symbo l</w>
cooki es</w>
rela tion</w>
r at
land sc
continu es</w>
cowor ker</w>
ba ked</w>
rhy th
hi de</w>
diale ct</w>
cou ples</w>
M il
st ated</w>
al ed</w>
qu es</w>
innova tions</w>
ca sh</w>
S app
K e
B ir
sa id
youtu be</w>
progra mming</w>
gu ar
gi es</w>
communic ating</w>
C Ds</w>
text books</w>
organi z
gu il
snow boarding</w>
rema ins</w>
re stri
is es</w>
good bye</w>
offic er</w>
Se a</w>
H eal
Bra z
w n</w>
le an
emo tions</w>
descri bed</w>
annu al</w>
J i
A li
re mind</w>
ni ghts</w>
an ic</w>
sta ti
pregn ant</w>
pe ts</w>
j us
batter y</w>
S T
Mc Donald</w>
tra de</w>
se lec
hun dre
equ al</w>
e d.</w>
deca des</w>
purch ase</w>
pl at
comb ine</w>
W in
B ook</w>
sc o</w>
A ra
wor d
oper ating</w>
bo dies</w>
cre ating</w>
are st</w>
a ff
A v
11 th</w>
ta ining</w>
inten ded</w>
S c
u al</w>
le i
S tu
har m
po d</w>
di ver
M andarin</w>
2 .com</w>
success fully</w>
recor ding</w>
occa sion
f ossi
el ly</w>
e vil</w>
de mon
si gh</w>
li p
cowor kers</w>
con fli
S ho
7 th</w>
well- known</w>
sy n
stro ke</w>
kil ling</w>
hu man
well .</w>
up date</w>
to ys</w>
pa int
h h</w>
g ent</w>
cu isin
wa ve</w>
ste m</w>
nu mer
ment ally</w>
distingui sh</w>
se ats</w>
nar row</w>
E 3</w>
ti e</w>
refre shed</w>
con clud
N ag
D A
h ay</w>
carri er</w>
C O
ru ral</w>
fle xi
argu ment</w>
P or
M ic
M at
win dy</w>
ph p</w>
ab and
Sapp oro</w>
refriger ator</w>
un necessary</w>
regre tt
t ary</w>
supp er</w>
sta tions</w>
ght .</w>
Su shi</w>
sp ots</w>
pos es</w>
fc 2.com</w>
dol ls</w>
di vor
bas is</w>
prom ote</w>
possi bly</w>
myster ious</w>
bar ely</w>
dome stic</w>
dial o
consu mption</w>
c ope</w>
Techno logy</w>
temp les</w>
You tube</w>
Braz il</w>
rag ana</w>
furnit ure</w>
docu ment</w>
H y
rec overed</w>
suici de</w>
ori gin</w>
fl our</w>
audi o</w>
Au tumn</w>
A R</w>
r and
m ly</w>
graph ic</w>
bran ch</w>
provi ding</w>
in fec
est ed</w>
Ama zon</w>
neighb ors</w>
nee dless</w>
lear ner</w>
kil ome
tom or
o ven</w>
I L
I G
s se
pro ve</w>
examin ations</w>
bas ket</w>
surroun ded</w>
sour ces</w>
mor al</w>
l ant</w>
intern ship</w>
Wh o</w>
I R
Bu t
st ates</w>
bra tion</w>
ad ditional</w>
dis gu
ans en</w>
y y
sp a
see k</w>
ob tain</w>
je cted</w>
ear ning</w>
b alls</w>
adm ire</w>
W a
Sci ence</w>
si de
i i
hi ll</w>
ch y</w>
r ough</w>
it age</w>
ex ce
re pa
ag u
V er
N ara</w>
enh ance</w>
T en
t v</w>
ri c</w>
qua ke</w>
k on
challeng es</w>
Re actor</w>
s par
D id</w>
Bhu tan</w>
xi mately</w>
stud ing</w>
rout ine</w>
ha ted</w>
garb age</w>
clo th</w>
che erful</w>
challeng ing</w>
b attle</w>
apologi ze</w>
fe wer</w>
cla ssic</w>
doll ar</w>
deli very</w>
E conom
tra di
ru sh</w>
progra m
in c
b low
addi tionally</w>
J our
arr ange</w>
ad jective</w>
Jack son</w>
z hou</w>
la stly</w>
k ar
hop </w>
ell a</w>
be couse</w>
B el
si ty</w>
fe ed</w>
ridi cul
fic tion</w>
festi vals</w>
cla im</w>
O S</w>
K araoke</w>
too .</w>
po d
per si
fun d</w>
Olymp ic</w>
BB C</w>
u pper</w>
sk ir
hou sing</w>
es says</w>
electri cal</w>
countr y
an ks</w>
tu i
el d</w>
bit ter</w>
artic le
shi ft</w>
occasion ally</w>
Le e</w>
v it
tt er
liter ally</w>
exp lo
W ind
sp a</w>
po cket</w>
mo d
mir ror</w>
law s</w>
l ength</w>
grand ma</w>
col ored</w>
N at
Mini ster</w>
↓ </w>
photo graph</w>
con se
chemi stry</w>
arrang ed</w>
20 th</w>
posi tions</w>
not es</w>
Y e
S T</w>
Bi g</w>
t at
sc u
ref lec
philos ophy</w>
distri bu
onomi yaki</w>
instru ment</w>
i an</w>
camp ai
cal end
per su
nur se</w>
appro ximately</w>
ser va
le ge</w>
bu ya</w>
blo gs</w>
advi se</w>
A D
wri t
expre ssed</w>
ke ys</w>
di ag
characteri stics</w>
L o
6 th</w>
u tion</w>
of -
S al
supp orted</w>
exi stence</w>
ar ma
D ev
200 1</w>
quar re
pot atoes</w>
mel o
mb ling</w>
ir ing</w>
fif th</w>
accep table</w>
H O
-in- law</w>
mat ure</w>
expec ting</w>
cho osing</w>
L in
summ ary</w>
physi cs</w>
op tion</w>
hydro gen</w>
e ver
ud on</w>
organi zed</w>
unbeliev able</w>
tex ts</w>
foc used</w>
di a
N aga
○ </w>
tou ching</w>
s la
par ti
continu ing</w>
Shin juku</w>
M s</w>
tra in
sc ores</w>
rec es
off ers</w>
inst alled</w>
gramma tical</w>
att ac
achi eved</w>
su pri
present ed</w>
expen di
d ried</w>
cou ld
E do</w>
uni form</w>
ser ving</w>
chemi cal</w>
techno logical</w>
hel lo</w>
fi sh
R om
P en
ru p
comp osed</w>
b tw</w>
J ack</w>
techni que</w>
for give</w>
ff s</w>
f al
e .
d ated</w>
bl ind</w>
bi lities</w>
P C
K it
strugg le</w>
st ac
sh u</w>
respon d</w>
ign ore</w>
fall en</w>
di o
ch u
a de
L at
work .</w>
fresh man</w>
trouble some</w>
ough ly</w>
e u
New s</w>
ous ness</w>
dru g</w>
clou ds</w>
celebr ated</w>
To y
th or
hundre ds</w>
fa ir
be ll</w>
sen i
grand parents</w>
con firm</w>
Tor onto</w>
thank ful</w>
fi gu
ch ani
Bri tain</w>
tw o-
dist ur
ama zed</w>
Kan sai</w>
invest ment</w>
i ku</w>
de mo
de fini
competi tive</w>
En gine
instru ments</w>
appli cations</w>
refer ring</w>
re servation</w>
kin g
avo i
Ar t</w>
wor ries</w>
so a
pac ked</w>
fossi l</w>
4 8</w>
where as</w>
tech n
oo ps</w>
comfor t</w>
archite cture</w>
squ are</w>
sp o
re ss</w>
gener ate</w>
A A
&apos; the</w>
pack age</w>
weap ons</w>
ur t</w>
sur vey</w>
peop les</w>
bri lli
adverti sing</w>
zu oka</w>
self- introduction</w>
ren ew
in fra
gh ten
ck er</w>
sn ack</w>
res ort</w>
R ed</w>
s light</w>
jac ket</w>
co ach</w>
a qu
wh o
there .</w>
t ons</w>
ra il
qu anti
f m</w>
f ed</w>
thre e-
stress ful</w>
fil es</w>
sh op
ro lled</w>
rea d
me ,</w>
ma ster
in vention</w>
ham burger</w>
e ,</w>
disc overy</w>
bla me</w>
a war
P art</w>
disadvant ages</w>
c tu
4 .
mi d-
cos me
coo ler</w>
min ton</w>
index .html</w>
han ded</w>
d ary</w>
5 -
S we
m ou
m ang
E lec
un i</w>
succe eded</w>
off ici
ici ency</w>
di ty</w>
cancel ed</w>
acqua int
Miy az
Mini stry</w>
b o</w>
a h</w>
D en
stu dio</w>
ele v
destro yed</w>
sig ned</w>
pain ted</w>
na tives</w>
increa ses</w>
S ome</w>
H ei
sil ver</w>
ani a</w>
the at
hom es</w>
ba mbo
Com p
thi er</w>
that .</w>
t one</w>
min ds</w>
me tal</w>
hor ror</w>
h at</w>
bra ve</w>
N HK</w>
C oun
r ot
myster y</w>
er s.</w>
educ ated</w>
bambo o</w>
al o
the -
paint ings</w>
ne arest</w>
in ev
B er
wi ves</w>
gradu ating</w>
col lap
Th ree</w>
year .</w>
ve ments</w>
prin ted</w>
kin da</w>
O ri
sp ac
pro cess
ag e.</w>
y ard</w>
ra ising</w>
op timi
hom est
fe es</w>
c it
bar a</w>
19 7
sur ed</w>
rec all</w>
pro verb</w>
gri lled</w>
en counter</w>
Wh ite</w>
yu mmy</w>
safe ly</w>
rela tions</w>
fa irs</w>
do l</w>
ab or
can dy</w>
an e</w>
● </w>
on y
co al</w>
ag gre
ph arma
for ge
sh ow
pu mp
jump ed</w>
bo xes</w>
assign ments</w>
stor m</w>
souven ir</w>
po ver
lo ving</w>
But ler</w>
gu e
Tr ans
ti p</w>
plan et</w>
name se</w>
n on</w>
mi ly</w>
Stre et</w>
H oli
v ote</w>
maj oring</w>
hh hh
con s
cle ver</w>
cha in</w>
unti ll</w>
M om
C enter</w>
5 5
※ </w>
ve st</w>
tw el
te .</w>
fi shes</w>
e m</w>
con cep
E a
sel fish</w>
ro ad
ali ties</w>
ac custom
E l
ra ble</w>
mea sure</w>
lo vers</w>
gor geous</w>
ar y.</w>
Chi ba</w>
me chani
en ger</w>
country side</w>
be l</w>
&apos; .</w>
trea sure</w>
reces sion</w>
es ,</w>
na tions</w>
g ning</w>
Mos cow</w>
9 .
15 th</w>
re solution</w>
p our
nu clear
dom in
M el
8 -
un natural</w>
sh a</w>
r r
per for
particip ants</w>
harm ful</w>
fin gers</w>
consequ ently</w>
E gy
ti te</w>
quot e</w>
pu ll</w>
at ar</w>
S tation</w>
sh ining</w>
T ar
Shi buya</w>
Edu cation</w>
th -
reli ef</w>
pla in</w>
eng ers</w>
st ol
ro of</w>
intellig ent</w>
tra ge
rele v
ch ri
ch or
accustom ed</w>
N ak
z zy</w>
rea ds</w>
popul arity</w>
hur ts</w>
gh ted</w>
g un
automa tically</w>
win s</w>
wh er
ul ti
ton i
supp orting</w>
stom ach
psycho logical</w>
in gu
hum or</w>
gre en
T- shirt</w>
t .
mp 3</w>
ma sk</w>
informa l</w>
M ore</w>
G ar
promo tion</w>
om i</w>
ol dest</w>
lec tures</w>
ei gh
bri de</w>
Christi an</w>
B lu
su its</w>
e- mails</w>
con tain</w>
N an
re gu
rak ami</w>
m -
evi dence</w>
cooper ation</w>
cons cious</w>
tom s</w>
eri al</w>
b in
2 2
d ental</w>
D r</w>
ti ring</w>
pos ts</w>
musc les</w>
hea ven</w>
aa aa
T er
teen agers</w>
perspe ctive</w>
inv ented</w>
decrea sing</w>
calend ar</w>
H A
ther .</w>
separ ated</w>
li f
butt ons</w>
8 .
vin ce</w>
vehic les</w>
reli able</w>
pover ty</w>
me etings</w>
wa ves</w>
over all</w>
mi rac
bu n</w>
ad ding</w>
sc rea
el op
bur ned</w>
y uk
ta ined</w>
peop le.</w>
meaning ful</w>
ban ana</w>
ay ama</w>
9 th</w>
musici ans</w>
ly -
et ti</w>
disor der</w>
deb ate</w>
cru cial</w>
cli ents</w>
ca bb
ban ned</w>
jo ining</w>
fac tion</w>
deliver ed</w>
c ro
W al
K ar
① </w>
ch air
shu t</w>
ee ee
b ou
anxi ety</w>
Mu rakami</w>
crimin al</w>
ci vi
H ere</w>
sp ell</w>
recei ving</w>
g ant</w>
dor m</w>
bun ch</w>
T ower</w>
pati ence</w>
brea king</w>
bad minton</w>
1 10
patter n</w>
fro zen</w>
super vi
sk ill
sincer ely</w>
sh oot</w>
Shi zuoka</w>
Indone sia</w>
q </w>
commu te</w>
c ough</w>
K im</w>
oni on</w>
la dies</w>
sol ving</w>
schol ar
os al</w>
hon ey</w>
a mu
O ff
ridicul ous</w>
mm a</w>
min ated</w>
main ten
draw n</w>
b ited</w>
Wi kipe
B r
0 .
tur ed</w>
strang er</w>
re ven
insp ired</w>
ak ana</w>
accom mo
B ur
se c
phe w</w>
cap able</w>
broadca sting</w>
ther ap
terr ori
regar ded</w>
nur sery</w>
insi st</w>
pay ment</w>
bac ks</w>
Ti mes</w>
I F
C oo
Al though</w>
sub mit</w>
soon er</w>
l ers</w>
idi oms</w>
exi sts</w>
disc over</w>
d ating</w>
be have</w>
E ven</w>
shou ted</w>
exi sting</w>
cal cul
resear chers</w>
refu sed</w>
immi gr
holi c</w>
gather ing</w>
conduc ted</w>
cele bri
ank ly</w>
F l
sh ri
il legal</w>
g un</w>
fun eral</w>
design s</w>
T V
A p
1 ,
sil ence</w>
o i</w>
fac ts</w>
est ing</w>
al right</w>
again .</w>
B os
B lack</w>
wil l
schedu led</w>
prin t</w>
comb ination</w>
collec tion</w>
Sak ura</w>
E v
E S</w>
sa dness</w>
ga wa</w>
a in</w>
We b</w>
Malay sia</w>
M A
B ang
list en
le ague</w>
U mm</w>
N Y
mu sh
lab or</w>
in form</w>
e ding</w>
di lig
R amen</w>
Dev elop
D .</w>
vo ices</w>
su spe
key board</w>
8 6.
- to-
to k
strang ers</w>
dri vers</w>
K at
tt es</w>
sop hi
re moved</w>
pow der</w>
ene my</w>
ai l</w>
Ro ck</w>
w s</w>
re pu
pic k
pass engers</w>
happi er</w>
expec tation</w>
dy na
down load</w>
dial y</w>
sa murai</w>
in ner</w>
ha m</w>
chi ps</w>
touri sm</w>
mod els</w>
implement ed</w>
f ond</w>
cuisin e</w>
conse cutive</w>
M an</w>
perfor man
ob stac
l ling</w>
re start</w>
r ented</w>
pro hi
m are</w>
in spi
homest ay</w>
friend s.</w>
b one</w>
ad just</w>
Y uk
s lu
gener ated</w>
d at
cra ft</w>
app ing</w>
al pha
Wikipe dia</w>
stea k</w>
sta dium</w>
shel f</w>
p o</w>
belon ged</w>
world wide</w>
ten dency</w>
ma xi
a muse
cru el</w>
CN N</w>
z a
uti li
os e
k ni
K ei
tiv eness</w>
sa fer</w>
p -
instru ctor</w>
in her
ch op
J AP
H ot
Gre en</w>
up loaded</w>
uni on</w>
tion ary</w>
te l</w>
pre tend</w>
on ship</w>
bom b</w>
blo ck</w>
ad y</w>
Fr anci
p our</w>
UR L</w>
F un
descri ption</w>
conven tional</w>
car rying</w>
brilli ant</w>
ar rested</w>
americ an</w>
W ell</w>
volunte ers</w>
vehic le</w>
on ing</w>
ne st</w>
day s.</w>
sho oting</w>
pu p
incredi ble</w>
g gy</w>
e dge</w>
C am
spiri ts</w>
religi ous</w>
noun s</w>
irrit ated</w>
hi m.</w>
grocer y</w>
exc ite
no ti
muse ums</w>
b in</w>
U se</w>
y al</w>
u gly</w>
to fu</w>
oku ma
bur ning</w>
re lu
glo omy</w>
ex posed</w>
W R</w>
Viet namese</w>
I ON</w>
4 9
self .</w>
ri sks</w>
okuma .blog
okuma.blog 86.
okuma.blog86. fc2.com</w>
k eni
keni chi
kenichi okuma.blog86.fc2.com</w>
str eng
il led</w>
fr ench</w>
mu late</w>
k ot
illu str
fe ed
butt er
Ge or
8 00</w>
10 th</w>
t ant</w>
sign s</w>
ob jective</w>
h ire</w>
expre ssing</w>
M ad
I D
D or
ur ban</w>
pul led</w>
ly wood</w>
house work</w>
hospit als</w>
her o
car bon</w>
an i</w>
C ap
Ali ce</w>
physi cally</w>
m al
exp and</w>
wh eat</w>
school .</w>
s ar
room mates</w>
inse cts</w>
gra tion</w>
deci sions</w>
bo ots</w>
b os
attac ked</w>
ade qu
Pri me</w>
ti ght</w>
se ts</w>
part ners</w>
ev en
concent ration</w>
je al
Pol and</w>
M ary</w>
Heal th</w>
house hold</w>
chil ly</w>
W est</w>
U T
Shin k
N ight</w>
② </w>
l ings</w>
fa ke</w>
eng ine</w>
ath y</w>
YO U</w>
MS N</w>
B C</w>
un it</w>
spa gh
multi ple</w>
cl oud</w>
Wind ows</w>
t ap
sick ness</w>
row a
pi g</w>
mel on</w>
X i
Miyaz aki</w>
ture .</w>
mainten ance</w>
dra ft</w>
o y
en s
app lying</w>
ac ity</w>
♥ </w>
s aturday</w>
re volu
prote ction</w>
pe pper</w>
mo de</w>
l ly</w>
goo d.</w>
figu res</w>
ama z
S O
Buddhi st</w>
4 7
tomor row
ti ous</w>
ex ag
di ly</w>
comb ined</w>
8 th</w>
superi or</w>
sun set</w>
se af
rec ru
par ks</w>
p assi
ge tic</w>
wa sted</w>
reve al</w>
pa sses</w>
me ter</w>
me ss</w>
k -
h u</w>
fr ankly</w>
f lat
ch iro</w>
tra ined</w>
sti ff</w>
smoo th</w>
ing ton</w>
da wn</w>
concer ning</w>
app les</w>
Wi th</w>
K in
C ul
life .</w>
k ai</w>
inter views</w>
geni us</w>
disa sters</w>
bloom ing</w>
bar becu
as ing</w>
G o</w>
C ould</w>
B y</w>
win ner</w>
sh it</w>
reali sed</w>
i phone</w>
ge ment</w>
f its</w>
f it
di ans</w>
d le</w>
continu ous</w>
bree ze</w>
3 9
z ak
ten ds</w>
symp toms</w>
go ti
fle w</w>
belon gs</w>
beli ef</w>
b arri
a tion.</w>
B e</w>
3 3</w>
this .</w>
relev ant</w>
in ts</w>
gue ssed</w>
b ars</w>
Whi ch</w>
Bir thday</w>
t ag
stor s</w>
stol en</w>
relu ct
hot ter</w>
ha bit
desi gning</w>
dead line</w>
amuse ment</w>
Sh r
M anga</w>
C E</w>
displa yed</w>
de par
climb ed</w>
. php</w>
X -
S E
4 00</w>
v acc
u ri
profess ors</w>
mon thly</w>
con fir
bu ses</w>
bed ded</w>
b less</w>
at les</w>
C i
5 00
straw berry</w>
gen der</w>
3 7
&apos; a</w>
j in</w>
Z Z
Franci sco</w>
mic rowa
ch eri
rhyth m</w>
&apos; is</w>
sophi sti
un familiar</w>
su mo</w>
ir on</w>
S ta
Olymp ics</w>
ru pt</w>
fic ally</w>
thou gh
week days</w>
techni ques</w>
kilome ters</w>
con f
clu bs</w>
G in
Ab out</w>
twel ve</w>
k an</w>
compar ing</w>
adap t</w>
Wri ting</w>
Th ese</w>
work force</w>
wh el
respe c
qu it
all er
ty ping</w>
tri ps</w>
le f
hear ts</w>
advi sed</w>
P l
C el
00 pm</w>
n om
con cre
V ER
y ers</w>
ref lect</w>
premi um</w>
oooo oooo
f ool</w>
comprehen sion</w>
translat or</w>
mon key</w>
ma ssive</w>
idi om</w>
de le
cele bration</w>
L ast</w>
we ars</w>
ol ine</w>
ment .</w>
mar k
gra ve</w>
XX X</w>
Se con
Har uki</w>
yester day.</w>
to ler
swi tch</w>
stati stics</w>
sp ot
necess arily</w>
man ners</w>
i chi</w>
e el</w>
M ost</w>
K az
A le
ty -
pap er
o z
ter nal</w>
satis faction</w>
samp le</w>
monit or</w>
is a</w>
hi king</w>
fa ti
fin ance</w>
em bedded</w>
con fe
advertise ments</w>
stra ct</w>
si zed</w>
re fresh</w>
ne u
min ded</w>
esc ap
ru shed</w>
re tired</w>
appe tite</w>
Cent ral</w>
nor thern</w>
gh ost</w>
e ties</w>
ca fe
Lit tle</w>
E E
emplo yed</w>
adv enture</w>
Soci al</w>
200 9
on able</w>
i ze</w>
gar d
episo des</w>
ca ble</w>
℃ </w>
sta ffs</w>
so y
shi mi</w>
li ght
fu els</w>
attemp t</w>
C al
tran sport</w>
surroun ding</w>
less ly</w>
j o</w>
e c
Th anks</w>
Nag ano</w>
K ama
Col lege</w>
A n</w>
weal th</w>
over whel
goo gle</w>
ge o
citiz en</w>
certi fic
acc ents</w>
8 3</w>
sc rat
proper ty</w>
per cent
ow ned</w>
h an</w>
guar an
bri ef
sof a</w>
ic e
expl osi
affec ts</w>
U k
A ri
win gs</w>
tui tion</w>
inci dentally</w>
har m</w>
gen e
dess ert</w>
SC WR</w>
M ei
trans ferred</w>
sa dly</w>
pur poses</w>
lea f</w>
landsc ape</w>
kin iku</w>
infra structure</w>
con s</w>
campai gn</w>
au l</w>
achiev ement</w>
Mu sic</w>
ou ts</w>
numer ous</w>
li ft</w>
er ature</w>
enti rely</w>
bl an
atom ic</w>
associ ated</w>
ance stors</w>
N Z</w>
/ 0
- san</w>
m or</w>
f fe
crow d</w>
Fe b</w>
w rest
im it
gra titude</w>
en g</w>
chap ter</w>
sor y</w>
produc tive</w>
p ud
d ose</w>
compar ison</w>
prop osed</w>
in sul
fe a
di ss
Qu es
M .</w>
3 6
tommor ow</w>
snow ed</w>
ne cessi
ki dding</w>
fif teen</w>
expendi ture</w>
ener getic</w>
air -
Ri ver</w>
A ss
pol len</w>
gra m</w>
goo g
dis appear</w>
accoun ting</w>
x y
spagh etti</w>
so ap</w>
sav ings</w>
po or
logi st</w>
concep ts</w>
chil dish</w>
bott les</w>
ang le</w>
Shink ansen</w>
hair cut</w>
fa st
cu ps</w>
b ite</w>
week day</w>
trage dy</w>
tal ented</w>
sou thern</w>
fo x</w>
consu mers</w>
ON E</w>
ES L</w>
wan ting</w>
stuff s</w>
g ay</w>
el dest</w>
deman ds</w>
concent r
accur ate</w>
Hol lywood</w>
■ </w>
st ream</w>
said ,</w>
har dest</w>
fan cy</w>
de aling</w>
S ur
Aki ha
ser ves</w>
one ,</w>
do ll</w>
W here</w>
stri c
sophisti cated</w>
plat form</w>
pl ot</w>
oper ate</w>
oo f
en cing</w>
compla ining</w>
D ar
v ine
op tions</w>
mu ch.</w>
knowle d
inve st</w>
inten tion</w>
P O
33 4
satis fy</w>
one self</w>
drea ming</w>
diction aries</w>
coun table</w>
convin ced</w>
paragrap h</w>
mi xi</w>
ga mi</w>
clos ely</w>
sha ke</w>
fil ling</w>
cor n</w>
ch a</w>
b ble</w>
4 -
t in</w>
pre viously</w>
fun dam
G un
0 1</w>
pen sion</w>
p a</w>
g an</w>
exag ger
ea sy
ad mission</w>
hea ded</w>
si ans</w>
n g</w>
ic a</w>
contro versi
atu lations</w>
H ea
An y
ref use</w>
fri ghten
er ce</w>
carto ons</w>
Th ir
T A</w>
3 5
soldi ers</w>
sm ells</w>
practi se</w>
ac cess
ab i</w>
Ac tually</w>
un lucky</w>
sac ri
cra tic</w>
be tt
Ne ther
oppon ents</w>
0 9</w>
rap id</w>
rain bow</w>
ne goti
mp s</w>
in formed</w>
elev ator</w>
d ently</w>
U K
G over
C ri
se ctor</w>
s tion</w>
re placed</w>
che st</w>
Air port</w>
shoc king</w>
inv itation</w>
ex ception</w>
employ ers</w>
val ent</w>
su re
sh in
of t</w>
me dal</w>
ap le</w>
A -
reduc ing</w>
fun c
c and
NO T</w>
N et
4 8
k ick</w>
ev acu
ci ca
CP F</w>
25 th</w>
rob ots</w>
ri cul
pre -
hy dr
hot els</w>
cigare tte</w>
all ergy</w>
AN D</w>
techn ically</w>
ele ments</w>
dol ph
M any</w>
F C</w>
sur f</w>
recomm end
gr ounds</w>
appro aching</w>
In stitute</w>
Develop ment</w>
Chi l
Akiha bara</w>
melo dy</w>
hol ds</w>
h ori
cabb age</w>
ast oni
P art
v ow
thou ght
ster day</w>
hi l
en or
empha sis</w>
ab sence</w>
Pe ter</w>
P resident</w>
A gain</w>
whe el</w>
pos ting</w>
night mare</w>
mirac le</w>
h our
consi st
Shr ine</w>
M erry</w>
ski p</w>
produc ing</w>
no -
mi -
in stitute</w>
drea med</w>
col lo
cap acity</w>
Ang el
on ics</w>
ni ece</w>
n. d.</w>
identi ty</w>
ici ous</w>
i dol</w>
gi cal</w>
d are</w>
compla ined</w>
br inging</w>
woo den</w>
quanti ty</w>
mi d</w>
inno cent</w>
di ving</w>
dam n</w>
bri ef</w>
W ar
St ar</w>
. edu
t une</w>
reali stic</w>
pic nic</w>
g ad
all .</w>
O ct</w>
K ind
E- mail</w>
s .com</w>
photo graph
microwa ve</w>
guil ty</w>
us a</w>
decor ated</w>
costu me</w>
co ast</w>
af fairs</w>
Y os
B O
wor n</w>
vic tory</w>
ex cep
cat ching</w>
au </w>
Su per
w ed</w>
om a
gent le
fra me</w>
fortun ate</w>
en za</w>
e mi
ch ann
ang e
B rea
poe ms</w>
bi a</w>
Be atles</w>
occu p
et ly</w>
di ct</w>
dan ced</w>
ch o</w>
In formation</w>
un easy</w>
seaf ood</w>
mb led</w>
l in</w>
in ven
di zzy</w>
T ry</w>
f icial</w>
audi o
a v
Pe ter
Kama kura</w>
G O
s kin
na il</w>
lot tery</w>
k en
hom e.</w>
gradu ates</w>
exper ts</w>
b our
b oun
aqu arium</w>
Com ment</w>
tra sh</w>
st oc
pre ten
os ity</w>
nat to</w>
mi ser
cock ro
ba ss</w>
H ai
Bus iness</w>
B en
k ill
in struc
ign ored</w>
comm it
ab bre
H is</w>
way ,</w>
seni ors</w>
sc ol
rema ined</w>
process ing</w>
m ol
m ated</w>
ar chi
N ic
20 12</w>
14 th</w>
th o
indic ates</w>
fascin ating</w>
deta iled</w>
chop sticks</w>
ch el
S t</w>
M O
Lang 8</w>
Japanese .</w>
Fr om</w>
D P</w>
&apos; and</w>
v ital</w>
sc ent</w>
re served</w>
r ay</w>
m ales</w>
jap an
fi s
en o</w>
chi ef</w>
P aul</w>
Hi gh
De partment</w>
u res</w>
t ac
performan ces</w>
p .</w>
nu t</w>
barbecu e</w>
P h
H ay
rou te</w>
politici ans</w>
mer ely</w>
hop es</w>
ch r
b at
adv ance
abbre vi
sex ual</w>
lon el
har sh</w>
ay ed</w>
M ag
Li ke</w>
Je sus</w>
z er</w>
u ps</w>
shr ines</w>
fanta sy</w>
f ellow</w>
der i
identi fy</w>
hang over</w>
en der</w>
du st</w>
deter mine</w>
den y</w>
d ure</w>
assi st</w>
Sc ot
I m</w>
334 65</w>
viol ent</w>
t ack
resour ce</w>
repu tation</w>
m ani
li tt
ji ma</w>
en glish
NY C</w>
vide o
r ates</w>
ne phew</w>
k ok</w>
fascin ated</w>
fac t
duc tion</w>
comm and</w>
ca go</w>
s at
ing ..</w>
V ery</w>
Por tu
Ky u
H I</w>
way .</w>
war ning</w>
ti le</w>
sun light</w>
plan ed</w>
l ens</w>
ki ss</w>
bu tter</w>
Sa it
D ea
e ats</w>
deli ver</w>
out door</w>
gas oline</w>
d am</w>
chor us</w>
bo il</w>
H os
wher ever</w>
vi sible</w>
lon g
li vely</w>
glo ba
g ated</w>
fu me</w>
consequ ences</w>
clai med</w>
a ur
terri bly</w>
st ones</w>
produc tivity</w>
fashi onable</w>
decrea sed</w>
ag ri
K ing
Ca mer
un pleasant</w>
tom atoes</w>
spe ct
p. m</w>
o v
mb </w>
fri day</w>
de al
ag ent</w>
skir t</w>
pu shed</w>
percent age</w>
lei sure</w>
ke i</w>
fif ty</w>
L and</w>
30 am</w>
see ds</w>
sche me</w>
consci ously</w>
conf use</w>
St ory</w>
H ou
B ea
shar p</w>
mat ches</w>
in spe
bur g</w>
A ca
w alls</w>
min or</w>
in put</w>
high way</w>
cor respon
char ming</w>
L Y</w>
re turning</w>
la cking</w>
end ure</w>
b ay</w>
Pal ace</w>
A rab
↑ </w>
× </w>
wi shed</w>
ud es</w>
sh er</w>
mo chi</w>
inter val</w>
co in</w>
ca using</w>
assi stance</w>
Toy ota</w>
Gu ang
3 8
re se
b ing</w>
ar y
ab out
a e
Ya hoo</w>
Chil dren</w>
speci fically</w>
ob serve</w>
ob jects</w>
nur sing</w>
ex pos
econom ical</w>
attra ctions</w>
ago .</w>
S P
men d
jeal ous</w>
experi ments</w>
bel t</w>
W on
I r
I B
For ei
t ched</w>
stomach ache</w>
mi x
gr ows</w>
direc ted</w>
cell s</w>
Mexic an</w>
Kind le</w>
D O
Arab ic</w>
4 6
viol ence</w>
v ul
t down</w>
n ment</w>
me ..</w>
de va
Tak o
x D</w>
wri ters</w>
supri sed</w>
ros es</w>
ly ,</w>
humi dity</w>
g ment</w>
flexi ble</w>
describ ing</w>
al ot</w>
P aci
A Y
a king</w>
T al
N inten
Comp any</w>
- and-
tan e
ta g</w>
pro of</w>
pri de</w>
kni fe</w>
d ential</w>
con vey</w>
assi gned</w>
Holi day</w>
.gov /
wor thy</w>
p se</w>
f rea
embarra ssing</w>
Chi cago</w>
soa ked</w>
rema ining</w>
pu ts</w>
extre me</w>
en di
cr y
Re search</w>
I -
wor th
ti ed</w>
sn ap
require ments</w>
par a
p ond</w>
inst all</w>
clos ing</w>
b loo
M Y</w>
1 50</w>
0 3</w>
xi de</w>
sha king</w>
k y
dis ci
clean er</w>
am an
H D
ri dge</w>
mil lions</w>
gr ated</w>
en able</w>
cur ricul
concre te</w>
St ate</w>
O F</w>
H ong
&apos; cause</w>
zak aya</w>
wa king</w>
speci es</w>
signific antly</w>
lo ose</w>
g age</w>
Y o
Sy stem</w>
P ic
M E</w>
ori ties</w>
ne y
la sted</w>
jo g</w>
inven tions</w>
hi dden</w>
defini tion</w>
contro lled</w>
J an</w>
ta i
ster e
scholar ship</w>
repe ated</w>
hy po
foc using</w>
Se attle</w>
F re
AN G
far mers</w>
fal se</w>
adv ices</w>
V eg
I chiro</w>
B oo
. c
win ning</w>
characteri stic</w>
Fa mily</w>
3 2</w>
sex y</w>
par ade</w>
je ans</w>
har vest</w>
describ es</w>
u -
tu b</w>
sa i
l .</w>
hu g</w>
gu ess
V en
M om</w>
In tro
A w
zer o</w>
sel ls</w>
mi es</w>
half -
frien d.</w>
chest ra</w>
camp ing</w>
Ni i
su ke</w>
min ate</w>
lin gui
ke .</w>
Ok onomiyaki</w>
pro vince</w>
oun ts</w>
her .</w>
13 th</w>
thqua ke</w>
she ep</w>
pra ise</w>
p in
lead ers</w>
ki lo
gra ms</w>
g lu
du ll</w>
ba k
Gir l</w>
English ,</w>
3 00
2 1st</w>
soo oo</w>
run ny</w>
in stitu
i ly</w>
foo lish</w>
bow ling</w>
Sait ama</w>
ww w</w>
stric tly</w>
j a</w>
continu ously</w>
ci vil</w>
bal con
aca demy</w>
Wi ll</w>
Thir dly</w>
G lo
Every one</w>
Ch r
stud ent
struc tures</w>
ro les</w>
pen alty</w>
occur s</w>
n -
ma tic</w>
li graphy</w>
le st</w>
k awa</w>
dre sses</w>
depen dent</w>
controversi al</w>
compe te</w>
cent re</w>
work shop</w>
viol in</w>
vers al</w>
smi les</w>
red un
pur sue</w>
proce dure</w>
lang 8</w>
decl ine</w>
cul tiv
cu z</w>
cu cu
co inci
ani ma
W W
H o
yu an</w>
si us</w>
recommend ation</w>
memori zing</w>
analy ze</w>
os h</w>
organi ze</w>
night .</w>
enor mous</w>
dd le</w>
acci dentally</w>
Hot el</w>
Comm uni
Bos ton</w>
pos ter</w>
kne e</w>
en a</w>
c enti
Win ter</w>
Bang kok</w>
B E
wait er</w>
un fair</w>
sugge sts</w>
shoul ders</w>
re mark
par tly</w>
i er</w>
expec tations</w>
adequ ate</w>
Tako yaki</w>
Budd ha</w>
7 9
ten sion</w>
ta xes</w>
sin gs</w>
sh in</w>
represent ative</w>
post p
occur ed</w>
mon day</w>
lec tur
har a</w>
bi ology</w>
ba ke</w>
a ched</w>
R es
ou ra
min s</w>
hu h</w>
e gg
car ing</w>
bur st</w>
Se e</w>
L ab
7 .
stea m</w>
lean ing</w>
la z
Paci fic</w>
M er
tre mend
stuff ed</w>
pu pp
miser able</w>
make up</w>
jo y
industri al</w>
fati gue</w>
day -
Miy agi</w>
feed back</w>
es the
conclud e</w>
up .</w>
u h</w>
over slept</w>
laun ched</w>
il er</w>
foun dation</w>
bi e</w>
bel ly</w>
S mi
K ag
Ga me</w>
wri tes</w>
st ops</w>
ss ment</w>
ossi p</w>
os ts</w>
li ve
l ar</w>
gran ted</w>
congr atulations</w>
Nii gata</w>
H ome</w>
E X
n abe</w>
midd le-
lo a
ag en
Pro fe
12 th</w>
vi e</w>
strate gies</w>
so- called</w>
re presents</w>
pronoun ced</w>
pri son</w>
plan ted</w>
brea the</w>
Pu bli
M it
y ang</w>
ou s.</w>
mon e
mis understanding</w>
kin g.</w>
gre e
g on
ate dly</w>
P rac
B l
wa sting</w>
st op
non- native</w>
n an
lux ury</w>
gre etings</w>
f loo
d an</w>
T y
Du tch</w>
Cor rec
5 .
° </w>
ti an</w>
recep tion</w>
re land</w>
alpha bet</w>
Me di
t ap</w>
st an</w>
pl z</w>
low -
f ought</w>
broadca sted</w>
ac ce
19 th</w>
re less</w>
prin ce</w>
out put</w>
n in
day ..</w>
announ cement</w>
Q Q</w>
Nar ita</w>
JAP AN</w>
too th
susta in
stru ck</w>
rol ling</w>
o tic</w>
min i</w>
k ic
a sp
pic king</w>
mu </w>
fi cations</w>
encoura ging</w>
b i</w>
D O</w>
C lu
ran king</w>
jec tives</w>
gu </w>
dru ms</w>
don ate</w>
W om
H at
, ,</w>
st ead</w>
poli ce
pi e</w>
gu ard</w>
explan ations</w>
S tr
temper atures</w>
r ings</w>
quar ter</w>
over night</w>
ol s</w>
memori al</w>
ki sh</w>
i e</w>
A I</w>
un clear</w>
hon or</w>
did nt</w>
b bed</w>
L E</w>
J -
Da vid</w>
0 8</w>
0 7</w>
pra ised</w>
dre ss
divi sion</w>
camer as</w>
awar eness</w>
T R
J un
Cla us</w>
5 5</w>
ti ger</w>
thr owing</w>
sp lit</w>
see king</w>
ol d-
mo ves</w>
esti mated</w>
ele ph
deca de</w>
cont ent
A V
A I
view ed</w>
t una</w>
sk y
r oot</w>
mor e.</w>
free zing</w>
expla ining</w>
enthusias tic</w>
e ments</w>
cal ories</w>
an .</w>
V ol
I ke
tal e</w>
resul ted</w>
reli eve</w>
occa sion</w>
na ils</w>
gh ter</w>
for ces</w>
cre atures</w>
ab stract</w>
Nether lands</w>
La ke</w>
&apos; nt</w>
snow y</w>
hom ep
fis cal</w>
di se</w>
cri mes</w>
correc t.</w>
L earning</w>
pl um</w>
fai th</w>
con duct</w>
assu med</w>
ab led</w>
S un</w>
♡ </w>
vil la
so il</w>
por tra
liqu id</w>
l ord</w>
ir a</w>
discu ssing</w>
d as</w>
d .
be fore
M oon</w>
6 -
un expec
sp len
rec y
ra ti
mess y</w>
jump ing</w>
el ders</w>
differ ently</w>
de dic
con jun
S wi
O ur</w>
D ou
ros oft</w>
ong i</w>
og a</w>
green house</w>
curi osity</w>
contribu tion</w>
concer ts</w>
balcon y</w>
Jour nal</w>
wei gh</w>
in ting</w>
gin ger</w>
fr on
answ er
ob a</w>
medi ate</w>
it chy</w>
high school</w>
h ow
disci pl
bro ad</w>
w ars</w>
mi les</w>
dialo gue</w>
comp any
champi onship</w>
bo iling</w>
ban k
Secon d</w>
Jo b</w>
Av atar</w>
wea kness</w>
th under</w>
pre ssing</w>
org anic</w>
m .
destro y</w>
all -
V ic
Ga mes</w>
p g</w>
fit ness</w>
exe cu
ex changed</w>
dump lings</w>
deli ghted</w>
d s,</w>
cros sing</w>
coun ting</w>
comfort ably</w>
bu si
accompli sh</w>
G I
un ch</w>
tra cking</w>
sof t
del ay</w>
al oud</w>
agre ement</w>
O bon</w>
summ ari
s our</w>
log ically</w>
in convenient</w>
ful fill</w>
K -
se cure</w>
inter nal</w>
hos tel</w>
he ater</w>
crea tivity</w>
contribu ted</w>
ca tion
absor bed</w>
S ep</w>
K ou
K im
the ast</w>
so cks</w>
reg ul
morn ing.</w>
ki -
enthusias m</w>
I reland</w>
stand ards</w>
ra ces</w>
off ering</w>
n y
mon ster</w>
fir ed</w>
exper t</w>
che ap
char m</w>
Singapore ans</w>
Ninten do</w>
Ca stle</w>
A ir</w>
worl d-
sc ul
lu gg
je ction</w>
j </w>
cigare ttes</w>
bor din
Hi story</w>
Fi lip
De mo
C y
7 -
us .</w>
tr o</w>
requ ested</w>
rec entry</w>
nos tal
happ end</w>
collo qui
che ers</w>
U. S.</w>
Gover nment</w>
therap y</w>
port able</w>
organiz ations</w>
opp ongi</w>
li zed</w>
e ds</w>
chri stmas</w>
am in</w>
adop ted</w>
admini stration</w>
L ong</w>
A D</w>
super markets</w>
pen cil</w>
mini mum</w>
maxi mum</w>
do .</w>
defin ed</w>
cheri sh</w>
attra ction</w>
I &apos;
sw ine</w>
su bordin
re serve</w>
r o</w>
quali fication</w>
professi on
optimi stic</w>
hi ragana</w>
fair ly</w>
du </w>
d or</w>
Naga saki</w>
30 th</w>
sub title</w>
qui etly</w>
lun ar</w>
insi sted</w>
influ enza</w>
industri es</w>
indic ate</w>
e ..</w>
divor ce</w>
del ayed</w>
ad ju
a. m</w>
F R</w>
Emp eror</w>
Ch o
A S</w>
10 -
u re
sk illed</w>
rand om</w>
pra ying</w>
lo cked</w>
l or</w>
fundam ental</w>
dr um</w>
col lected</w>
Qu een</w>
O h
Bi ble</w>
24 th</w>
thing s.</w>
sli m</w>
shad ow</w>
respon si
re pla
crimin als</w>
bir th
bett er.</w>
J P
A ge</w>
recor ds</w>
oni ons</w>
mini mi
jour na
home less</w>
expla ins</w>
brea thing</w>
as sa
S ea
M ot
L ady</w>
De sign</w>
qui to</w>
or ders</w>
ment ed</w>
gh ing</w>
e ing</w>
disc oura
auth ors</w>
at ri
a bun
Kan agawa</w>
I shi
Fri end</w>
3 8</w>
mos quit
mm ed</w>
m un
gar lic</w>
al a</w>
U C
N BA</w>
Engine ering</w>
sp in
se i
natur al.</w>
k uro</w>
inj ury</w>
hear ted</w>
gu ese</w>
en counter
desper ate</w>
T ex
Sk y</w>
.gov .sg/
um -
stri ke</w>
re sc
plan es</w>
mur der</w>
inter ior</w>
ev es</w>
e mails</w>
b ills</w>
ac tively</w>
Gin za</w>
9 9
0 5</w>
patter ns</w>
out standing</w>
ma kers</w>
gh ty</w>
coo lant</w>
ser ver</w>
respe cted</w>
la sts</w>
inde x</w>
her itage</w>
disgu sting</w>
disc over
di pl
ass ociation</w>
L os</w>
ele ven</w>
S hu
N O</w>
Eng l
t owns</w>
sw am</w>
su bur
repe atedly</w>
comp on
Mic rosoft</w>
English- speaking</w>
Ear thquake</w>
6 00</w>
vir tual</w>
lonel iness</w>
defe ated</w>
con ve
c tic</w>
blow ing</w>
appreci ation</w>
Ja mes</w>
pro ved</w>
prev ented</w>
inev itable</w>
i ve</w>
certific ate</w>
S il
&apos; in</w>
z o
sti cally</w>
boo ked</w>
as a</w>
a me
Cla ss</w>
tri c</w>
st opping</w>
in fer
congr at
7 7
week .</w>
un forge
r ang</w>
qui z</w>
pa d</w>
mom ents</w>
ic ed</w>
confli ct</w>
col our</w>
Gre ek</w>
E M
6 5
. .
wai st</w>
vi sual</w>
so le
r us
pronun ci
in ser
excite ment</w>
ci an</w>
b ye
R oppongi</w>
O U
Dis ney
A k
supp orts</w>
sp anish</w>
smo kers</w>
par ent
o h
innova tive</w>
g room</w>
bal let</w>
a sted</w>
Poli sh</w>
Com pu
CE O</w>
B est</w>
Ass ociation</w>
troub led</w>
ti ming</w>
pre fec
illu stration</w>
ang el</w>
aggre ssive</w>
Rea ding</w>
Lat in</w>
Clu b</w>
Blu e</w>
Ani me</w>
z one</w>
tit udes</w>
t ful</w>
st in
simp li
sh ell</w>
sel ler</w>
scienti st</w>
quarre l</w>
prop osal</w>
long- term</w>
ju di
expl ore</w>
ex am
ear ned</w>
d ates</w>
bal lo
accommo dation</w>
K Y
ven ding</w>
puni shment</w>
princi pal</w>
occu pi
hair style</w>
champi on</w>
bul let</w>
brief ly</w>
b low</w>
E A</w>
＊ </w>
repa ired</w>
mul ated</w>
lo gic</w>
en ables</w>
dar kness</w>
conversa tional</w>
con stant</w>
ca sts</w>
anti -
an ticip
Ar gent
rec overy</w>
le an</w>
lar ge
ful .</w>
don ation</w>
develop ments</w>
comm it</w>
bour ne</w>
year s.</w>
sign al</w>
si vely</w>
com ed</w>
bil ingu
ber g</w>
b p</w>
arri ving</w>
ani um</w>
ab o
UN I
D oes</w>
16 th</w>
wi reless</w>
rec ent
i pod</w>
expen se</w>
e at
U eno</w>
R aku
Mi ss</w>
Li st
Kan to</w>
uni verse</w>
te sted</w>
mo tion</w>
fa iry</w>
co ins</w>
bother ed</w>
Tak a
- D</w>
ent y-
e ic</w>
vine .com</w>
victi m</w>
snap vine.com</w>
mis understood</w>
ke en</w>
gi sh</w>
collec ting</w>
bb ing</w>
Wor k</w>
worl d.</w>
prin cess</w>
e sses</w>
W ash
Joh n
18 th</w>
obli gation</w>
o x</w>
bu kuro</w>
af fair</w>
Tur key</w>
00 am</w>
ten der</w>
tal ka
stat ue</w>
or .jp</w>
mos quito</w>
immigr ants</w>
h en</w>
gen es</w>
diver ted</w>
ce iling</w>
Geor ge</w>
Egy pt</w>
st ating</w>
continu ation</w>
bar ber</w>
a ward</w>
T wo</w>
teen ager</w>
stor y
spac es</w>
pre dict</w>
intellig ence</w>
estab lish</w>
bo om</w>
Ye sterday</w>
Soci ety</w>
L an
vol can
suc ks</w>
di sh
cafe teria</w>
H it
Fa ther</w>
Cam bo
w ol
understand able</w>
re ward</w>
o .</w>
mm ar</w>
acquaint ance</w>
Y ang
U M
C ur
www. snapvine.com</w>
reve aled</w>
nutri tion</w>
jus tice</w>
cli pse</w>
Spe aking</w>
splen did</w>
passi on
lic ence</w>
la id</w>
keep er</w>
char ity</w>
ant .</w>
K or
G O</w>
0 9
－ </w>
tur tle</w>
ter min
na sty</w>
fin ds</w>
explosi on</w>
evalu ate</w>
de c
ay .</w>
yog urt</w>
t s.</w>
puzz le</w>
new s.
deser t</w>
da tions</w>
confir med</w>
bl ank</w>
ali sm</w>
a wa
&apos; The</w>
y ak
sc ored</w>
sa shimi</w>
pres ence</w>
na ked</w>
mot or</w>
good- bye</w>
conta ined</w>
U sually</w>
D I
Bra zi
secon dary</w>
practi ces</w>
m ..</w>
ke -
chil dr
can did
ber ries</w>
E D</w>
Bus an</w>
0 2</w>
writ ings</w>
gas es</w>
drama tically</w>
de vi
bi sh</w>
bak ery</w>
argu ed</w>
t ,</w>
sh og
ri sh</w>
regi ons</w>
liqu or</w>
laun ch</w>
hh h</w>
exerci sing</w>
ber t</w>
ali </w>
Veg as</w>
Ste ve</w>
199 9</w>
tran si
sub scri
s orrow</w>
ga ining</w>
en han
bon us</w>
b es</w>
Y en</w>
V a
Tri p</w>
T ree</w>
T ou
T it
De c</w>
Buddhi sm</w>
8 4</w>
v an
su it
so lid</w>
sna ke</w>
se ven
se es</w>
sandwi ch</w>
me ets</w>
lectur er</w>
fur </w>
example ,</w>
est ate</w>
deep er</w>
anima tions</w>
Rob ert</w>
J en
Forei gn</w>
0 4</w>
va st</w>
uk a</w>
tomorrow .</w>
s wear</w>
resc ue</w>
refre shing</w>
present ations</w>
me ta</w>
fig ured</w>
eth ical</w>
dist ant</w>
dio xide</w>
W H
T own</w>
H or
supp le
re tire</w>
p on
or chestra</w>
hesit ated</w>
e e</w>
dri ven</w>
de fine</w>
ch in</w>
cal ligraphy</w>
bor der</w>
au to
U don</w>
An other</w>
talka tive</w>
regrett ed</w>
pro duces</w>
mon th
lun ch
j et</w>
cros sed</w>
be a
W ould</w>
si e</w>
princi ple</w>
off ices</w>
din ing</w>
adop t</w>
Stud y</w>
Ni k
Al ter
③ </w>
v acu
supp or
s nee
qua lities</w>
be ars</w>
an cy</w>
F ood</w>
F M</w>
Cel sius</w>
4 2</w>
under ground</w>
tt able</w>
stea dy</w>
sli de</w>
ne sses</w>
mor ous</w>
imp ati
evol ution</w>
ence .</w>
O ta
thre at
the se
lugg age</w>
leg end</w>
gun s</w>
gr ay</w>
dest iny</w>
R ome</w>
Man agement</w>
K en</w>
G y
v ague</w>
tok yo</w>
time ,</w>
st rea
pron oun</w>
pha se</w>
le e</w>
har mony</w>
de sp
de serve</w>
de cent</w>
d able</w>
cli p</w>
busin esses</w>
T T</w>
SF R</w>
Ry oma</w>
Off ice</w>
L as</w>
J azz</w>
Imp erial</w>
B on</w>
perform ing</w>
e ag
coun tri
colle ges</w>
can cel</w>
a str
Sh ir
Mr s</w>
B la
war m
th a</w>
supervi sor</w>
ss or</w>
re present</w>
pan ic</w>
nation ality</w>
l end</w>
fer ti
dr ops</w>
ch ir
bi kes</w>
at titudes</w>
ap p</w>
Tok u
C A</w>
unexpec tedly</w>
st ew</w>
souven irs</w>
pros pe
prof iciency</w>
photograph s</w>
er ,</w>
be for
b ound</w>
Wi i</w>
wi d
u ts</w>
tra ding</w>
ti al</w>
scol ded</w>
pre position</w>
oper a</w>
modi fy</w>
ed a</w>
circum stance</w>
caf é</w>
bag gage</w>
accoun ts</w>
Di ff
. fm</w>
st a</w>
re write</w>
poli sh</w>
mon d</w>
li v
e co
Y oga</w>
D A</w>
sal mon</w>
rail way</w>
por tion</w>
fla sh</w>
ex tend</w>
electr onics</w>
di f
con serva
af for
Temp le</w>
z ard</w>
stra tions</w>
sp reading</w>
repe ti
remark able</w>
pud ding</w>
own ers</w>
inter mediate</w>
import antly</w>
ill a</w>
h s</w>
dre ssing</w>
def ense</w>
bur gers</w>
ad mitted</w>
M P
D an
Asa k
A gency</w>
100 0
thre at</w>
respec tively</w>
re m
man agers</w>
cere mon
boo .fm</w>
blan ket</w>
audio boo.fm</w>
H en
wor m</w>
trans lations</w>
s ne
in va
co ordin
cl ari
aband oned</w>
R ep
P E</w>
Ei ken</w>
Ai chi</w>
8 1</w>
29 th</w>
･ ･
wr ong
stra i
redun dant</w>
na u
len ses</w>
kat akana</w>
gh osts</w>
corpor ate</w>
N ice</w>
F F
C af
B ay</w>
stor ed</w>
st ays</w>
homep age</w>
commu ting</w>
Ya kiniku</w>
H ama
Be tter</w>
A t
A P</w>
uni ver
oo s</w>
manufactur ing</w>
low est</w>
fact ories</w>
W ater</w>
Uni on</w>
L ea
D r
sy l
shi -
sal ty</w>
ke mon</w>
he ating</w>
c ott
Net work</w>
H ear
17 th</w>
soo o</w>
per fume</w>
meaning less</w>
is lands</w>
cur ed</w>
comp os
c ently</w>
ad dy</w>
S atur
Kag oshima</w>
Hu man</w>
Fl ori
E T</w>
uni forms</w>
tal ents</w>
s giving</w>
or able</w>
ha mp
de er</w>
ch ores</w>
ce -
ba shi</w>
arti ficial</w>
O per
Gra mmar</w>
Afri can</w>
.j pg</w>
z uki</w>
vi al</w>
rememb ering</w>
poe try</w>
pod cast</w>
peop le
os t
compla int</w>
comp rom
tradi tions</w>
sw ing</w>
stere ot
so le</w>
sh out</w>
re sting</w>
ne ck
mu ch
ki m
h t</w>
gen re</w>
foun ded</w>
enter pri
bal anced</w>
19 5
0 6</w>
web -
ther mal</w>
require ment</w>
or a</w>
oc top
e go</w>
chair s</w>
Wash ington</w>
TE R</w>
N A</w>
G al
re jected</w>
increa singly</w>
dilig ent</w>
behavi ors</w>
ach i</w>
Th ere
Swe den</w>
S el
B ro
ten ses</w>
stra in</w>
shoc ks</w>
sett led</w>
reluct ant</w>
re union</w>
lon gest</w>
gra d</w>
g ently</w>
con temporary</w>
char set</w>
ai ms</w>
ab ata</w>
7 5
2 1
vocabul aries</w>
tri ck</w>
te d.</w>
t ank</w>
sub st
seas on
rela x
pump kin</w>
inspi ration</w>
hero ine</w>
han dic
gu es</w>
for getting</w>
ele gant</w>
d s.</w>
ble w</w>
avoi ded</w>
6 9
199 8</w>
vi vid</w>
twee t</w>
tu </w>
shap es</w>
ser endi
ma il
commerci als</w>
ch u</w>
carr ot</w>
US D</w>
3 4</w>
wel comed</w>
rati o</w>
pe cu
or .</w>
in king</w>
fashi oned</w>
bo d
befor e.</w>
Ta ke
Asak usa</w>
publi sh</w>
memor able</w>
li ber
grap her</w>
candid ates</w>
am ounts</w>
Singapore an</w>
E C
B ul
ten s</w>
te st
se i</w>
interpre ter</w>
he li
ge .</w>
fol k</w>
far mer</w>
divi de</w>
categ ory</w>
bran ches</w>
boo s</w>
ac tiv
U N</w>
P op
J ob
DA Y</w>
7 00</w>
10 .
.co .
occup ation</w>
list ed</w>
house .</w>
ed it</w>
dou gh
confu sion</w>
con struc
check up</w>
R el
O ld</w>
ru mor</w>
quali fied</w>
per mission</w>
ot es</w>
imp orted</w>
ic e-
f -8</w>
en ses</w>
coun sel
ci se</w>
care less</w>
capitali zed</w>
appe al</w>
ae mon</w>
S imp
Mi chi
B on
9 9</w>
non- Japanese</w>
initi al</w>
empha size</w>
de pos
Th ank
Mei ji</w>
. net</w>
ur gent</w>
un employment</w>
se a
rom ance</w>
pros per
prof its</w>
pain ter</w>
om it</w>
o ot
me d
ingredi ent</w>
he y</w>
end less</w>
U p</w>
S wit
I A</w>
to .</w>
resear cher</w>
prop or
op en
laugh ter</w>
fi es</w>
exten ded</w>
week ly</w>
ut f-8</w>
tw enty-
resear ching</w>
ni g</w>
motiv ate</w>
medic ines</w>
m s
f ate</w>
che f</w>
cell -
bed room</w>
S qu
Mar athon</w>
G L
3 6</w>
per man
musi cs</w>
house wife</w>
fl ood</w>
expos ure</w>
demon str
a mi
19 6
10 ,000</w>
sin s</w>
m at</w>
gi an</w>
el ing</w>
con qu
comp ul
associ ate</w>
V o
U sing</w>
secon d-
scri p
prin ter</w>
mon s</w>
ma su</w>
lim it
infec ted</w>
h iro</w>
grand pa</w>
coo ker</w>
consi st</w>
c ers</w>
apologi zed</w>
S at
Disney land</w>
us an</w>
shri mp</w>
du res</w>
a tional</w>
Y oshi
S ei
Mel bourne</w>
In stead</w>
Cha mp
manu al</w>
frequ ent</w>
flo ating</w>
evalu ation</w>
el y,</w>
deli cate</w>
capitali ze</w>
begin ing</w>
b all
Ser vice</w>
La w</w>
IC A</w>
B ab
An dro
3 4
u to</w>
time -
t ching</w>
sor ts</w>
son g
s word</w>
reci pes</w>
oli te</w>
n as
he al</w>
gr ant</w>
gener ous</w>
el li
after ward</w>
Cul ture</w>
Chin ese
year- end</w>
t ..</w>
subst anti
regar ds,</w>
pronoun ciation</w>
k er
intel lec
expre sses</w>
equi valent</w>
de sk
constru cted</w>
bath tub</w>
athle tes</w>
P ra
Ch ang
3 7</w>
progra mmer</w>
pri est</w>
op tional</w>
necessi ty</w>
le mon</w>
j unk</w>
hy si
fri st</w>
favor ites</w>
et su
d ong</w>
cri tics</w>
conne cting</w>
comm itted</w>
colloqui al</w>
au ction</w>
W ay</w>
Temp erature</w>
O x
M oun
B an
B ack</w>
z awa</w>
mi ld</w>
li al</w>
health ier</w>
guaran tee</w>
dra gon</w>
cel ona</w>
T oshi
H ot</w>
8 2</w>
&apos; S</w>
water melon</w>
ul ty</w>
oppon ent</w>
kill er</w>
in disp
eri a</w>
emp eror</w>
consequ ence</w>
att acks</w>
ambi gu
S ay
H ang
Gu am</w>
A dv
tremend ous</w>
ter .</w>
se v
resear ches</w>
regu lations</w>
pra yed</w>
occupi ed</w>
ob served</w>
o yama</w>
lear n
inter s</w>
come dian</w>
be e</w>
G R
ste el</w>
snow board</w>
short ly</w>
ro bo
nu ance</w>
frequ ency</w>
cosme tics</w>
car es</w>
black out</w>
be ers</w>
b by</w>
Pr ince</w>
D ream</w>
unforge ttable</w>
sp an</w>
ha tes</w>
drama tic</w>
che ss</w>
Sa murai</w>
Portu guese</w>
L O</w>
Aca demy</w>
zer land</w>
va cations</w>
th ful</w>
ori ent
mo vements</w>
min d
is .</w>
impres sions</w>
brea ks</w>
believ es</w>
R og
Per haps</w>
Andro id</w>
A m
re solve</w>
r ank</w>
is ol
imp er
cover s</w>
athle tic</w>
TH </w>
R est
person alities</w>
out come</w>
fla g</w>
escap ed</w>
ell er</w>
automa tic</w>
am bul
No. 1</w>
F R
D ays</w>
prote cted</w>
pe ak</w>
obstac les</w>
hea ding</w>
fr y</w>
celebri ties</w>
T un
this :</w>
tag s</w>
short -
direc tions</w>
d ances</w>
critici zed</w>
brea st</w>
K O
Dor aemon</w>
v ac
tru ck</w>
thr own</w>
sh opp
quot ation</w>
prom ising</w>
invol ves</w>
har mon
gl ance</w>
fu ton</w>
frighten ed</w>
con tain
cell ed</w>
super sti
mis understand</w>
er d</w>
docu mentary</w>
conserva tive</w>
bo x
ar .</w>
an ony
Kyu shu</w>
,000 yen</w>
vor ite</w>
visi tor</w>
vi o
thor oughly</w>
person nel</w>
mar ked</w>
gover ment</w>
Chri st
se ctions</w>
radio activity</w>
prom oted</w>
pre fer
pac king</w>
ob se
medi um</w>
li ps</w>
lan e</w>
h -
guess ing</w>
globa lization</w>
consu mer</w>
celebr ating</w>
c ap</w>
ali zation</w>
7 5</w>
w o
tri vial</w>
spee ches</w>
pp ers</w>
lat es</w>
gra sp</w>
form ing</w>
ex changing</w>
co a
bo ost</w>
Ta ke</w>
Hak one</w>
D oc
Ch an
tion ing</w>
se l</w>
re act</w>
ra ine</w>
h itting</w>
gi ant</w>
experi encing</w>
exi sted</w>
encoura ges</w>
der ship</w>
col labor
Ya su
Y uki</w>
There fore</w>
S pace</w>
E very</w>
Compu ter</w>
Bar celona</w>
sen ti
pl ates</w>
ob servation</w>
deb t</w>
cre ates</w>
can celled</w>
S up
Mr .</w>
v amp
tane ously</w>
pupp y</w>
neg lected</w>
hor ses</w>
di verse</w>
depar ture</w>
b or</w>
Whi le</w>
Uk raine</w>
Hon da</w>
selec tion</w>
r oughly</w>
new s
my self.</w>
exp an
esti mate</w>
e clipse</w>
decor ate</w>
abu se</w>
Ma sa
Gen etic</w>
Ex a
Au g</w>
tion s.</w>
subsi dies</w>
sli p</w>
si te
sa y.</w>
preci se</w>
octop us</w>
in ti
hosp itali
g by</w>
eg ar</w>
cra w
c ere</w>
arrang ement</w>
Y ears</w>
D y
Ch u
26 th</w>
woo ds</w>
wal ks</w>
under graduate</w>
mi ssi
lo c
hi p</w>
happi est</w>
f ting</w>
et c
ene mies</w>
collap se</w>
car ed</w>
az awa</w>
2 ,
- I</w>
step ped</w>
prohi bited</w>
proce dures</w>
por cel
eng aged</w>
cy cl
bri d</w>
bilingu al</w>
begin ners</w>
all ing</w>
a sa
Su b
Cambo dia</w>
4 4</w>
wait ress</w>
so on.</w>
pe tro
jo king</w>
h ired</w>
ex cer
ea stern</w>
contra dic
bo xing</w>
at ly</w>
Y oun
V O
Tea cher</w>
Swit zerland</w>
S ounds</w>
On ly</w>
Brazi lian</w>
198 6</w>
∩ </w>
y i
ti res</w>
rac y</w>
pour ed</w>
mu ff
lo y
j e</w>
ga mbling</w>
encounter ed</w>
drea m
coo ling</w>
an as</w>
alco holic</w>
a x
tow el</w>
tion ist</w>
sin cere</w>
imple ment</w>
hon e
h it
gen e</w>
f -
en d.</w>
br ands</w>
be live</w>
back grounds</w>
answ ering</w>
S her
M us
L ord</w>
up dated</w>
st es</w>
s ke
pow er
po i
life time</w>
it ..</w>
in ds</w>
f ted</w>
atta ch</w>
Va cation</w>
P R
G PS</w>
Be tty</w>
. The</w>
soldi er</w>
pur ple</w>
ok i</w>
mu lation</w>
job .</w>
hea ds</w>
f ab
Gre ece</w>
E le
. 1</w>
whe el
ste al</w>
spiri tual</w>
re su
ni e</w>
me -
ma i
inten se</w>
fi ce</w>
de pic
ali zed</w>
air line</w>
Ma o</w>
Ea ster</w>
C M</w>
ton ese</w>
re late</w>
pronunci ations</w>
predic ted</w>
mar t</w>
gre et</w>
docu ment
y ay</w>
st ages</w>
persu ade</w>
op ens</w>
investi gation</w>
inf o</w>
financi ally</w>
faci lity</w>
enjo ys</w>
dr un
diff er</w>
ch ick
bo ards</w>
UNI Q
P T</w>
M R
IM E</w>
6 6
- 1</w>
slow er</w>
le tting</w>
ki e</w>
inj a</w>
in sufficient</w>
imp olite</w>
identi fication</w>
caf es</w>
b ang
W el
sop hom
se ttle</w>
s ket
resi st</w>
ne .jp</w>
l -
j in
interview ed</w>
fire work</w>
cooper ate</w>
b ones</w>
T on
IS H</w>
weap on</w>
tal s</w>
qu et</w>
op hi
o ons</w>
maj ored</w>
joy ful</w>
h mmm</w>
gu chi</w>
ex tin
certi fication</w>
Sh into</w>
Gener al</w>
religi ons</w>
pun ctu
preci sely</w>
possi bilities</w>
oli tan</w>
k ong</w>
influ ences</w>
defin ite</w>
coinci dence</w>
ble .</w>
at tribu
H in
Fuku i</w>
Fu ji
Argent ina</w>
5 9
symp athy</w>
n arr
mechani cal</w>
inci dents</w>
gra ding</w>
flow ing</w>
desi gners</w>
defe at</w>
bu gs</w>
ac id</w>
Sup er</w>
1 .</w>
travel s</w>
st ure</w>
p on</w>
os u
lo gy
li on
co z</w>
ca u
bu g</w>
an der</w>
ac compani
Aw SF
. It</w>
＞ </w>
win ds</w>
sm elled</w>
program me</w>
ow ard</w>
li ver</w>
clear er</w>
c ans</w>
ari ties</w>
Tok yo
un ic
new ly</w>
ki do</w>
equi pped</w>
cla use</w>
X X</w>
N ext</w>
Den mark</w>
A m</w>
z i</w>
sli ced</w>
sha me
pre scri
p ir
out .</w>
ee ts</w>
dama ges</w>
S pi
S ony</w>
Indone sian</w>
C li
to ast</w>
suspe ct</w>
speciali st</w>
ri l</w>
posi tively</w>
p ic</w>
p c</w>
in di
fu cking</w>
cra sh</w>
compla ints</w>
ca ve</w>
am ate
P ea
Ota ku</w>
G M</w>
28 th</w>
t arian</w>
resear ched</w>
ran ked</w>
pre ferred</w>
porcel ain</w>
offic ers</w>
in ated</w>
de su</w>
cr ops</w>
bul ous</w>
appe aring</w>
S of
t om</w>
str ing</w>
pur se</w>
photo graphy</w>
os ter</w>
o graphy</w>
ligh ter</w>
de part
bla med</w>
b en</w>
argu ments</w>
T sunami</w>
Some times</w>
Prac tice</w>
P hot
Ma ster</w>
K on
I P
vin egar</w>
sun rise</w>
sat elli
sandwi ches</w>
s ms</w>
ma iled</w>
it ,</w>
corpor ation</w>
cell ular</w>
Hel p</w>
Angel es</w>
si mul
re war
op en-
obe y</w>
k om
enti ally</w>
consul t</w>
communi cations</w>
clos et</w>
bla h</w>
amu sing</w>
air ed</w>
T ot
Job s</w>
G aga</w>
C ra
Bo b</w>
』 </w>
th umb
sty lish</w>
smar t
secre tly</w>
gu m</w>
for i
fi ref
dr ow
asse ssment</w>
advance ment</w>
S am
J O
ter n</w>
pr oof
ob tained</w>
mush rooms</w>
histor ic</w>
gy m
es /
concentr ated</w>
b at</w>
Won der
T re
Ku ma
H am
An ne</w>
v ard</w>
ur anium</w>
sti cky</w>
refer red</w>
rec over
radi sh</w>
r ang
play ground</w>
p oo
m and
hus bands</w>
ht ml</w>
ge on</w>
deci ding</w>
ba king</w>
ar ro
a moto</w>
Su mo</w>
Pro ject</w>
L ess
Han ami</w>
H H
wi ki
ex clu
en e</w>
b att
arri val</w>
access ories</w>
Ki mono</w>
K an</w>
I zakaya</w>
si t
re al
pre ce
p ill
g all
for ty</w>
de stru
cockro ach</w>
carr ots</w>
bu ffe
ari o</w>
R oc
2 .</w>
199 0</w>
vul ner
than ked</w>
pre judi
po int
mosquit oes</w>
la ce</w>
inv ent
equ ally</w>
cat astr
as es</w>
a sia</w>
AB C</w>
un consciously</w>
terrori st</w>
o logical</w>
musc ular</w>
il ly</w>
down loaded</w>
char ged</w>
ch -
Y aman
Sp orts</w>
Ro ad</w>
P IE
LO VE</w>
L D</w>
wr ap</w>
th ats</w>
star ed</w>
se d.</w>
prob ability</w>
offici ally</w>
langu age.</w>
i ch</w>
hel lo
g ossip</w>
follow s:</w>
com er</w>
butter fly</w>
ban ks</w>
Re public</w>
Demo cratic</w>
27 th</w>
v ity</w>
ski pped</w>
revi se</w>
oni st</w>
o car
n &apos;
gentle man</w>
for um</w>
fir st-
fa thers</w>
consider able</w>
class .</w>
barri er</w>
appli ances</w>
We b
Mor ning</w>
Flori da</w>
Dea th</w>
5 8
un countable</w>
trop ical</w>
sacri fice</w>
rol ls</w>
kot atsu</w>
in tri
imp ort</w>
hos t
did &apos;t</w>
compul sory</w>
at ers</w>
Sh ould</w>
Rog ers</w>
Li ve</w>
ste ms</w>
ori ented</w>
incredi bly</w>
che ered</w>
cel er
c ited</w>
ben ch</w>
We ster
Tan abata</w>
TE D</w>
Ka wa
Au dio</w>
3 9</w>
tt ed</w>
though .</w>
the tic</w>
sp y</w>
six th</w>
rem ote</w>
rea ching</w>
le gi
it ude</w>
gra b</w>
ambul ance</w>
a voca
Ques tion</w>
I II</w>
D ic
z o</w>
wor d.</w>
un stable</w>
t ang
sho e</w>
revolu tion</w>
passion ate</w>
li p</w>
ff y</w>
er ts</w>
desper ately</w>
consci ousness</w>
Profe ssor</w>
Mo vie</w>
L ang</w>
H er</w>
F an
B or
t led</w>
sh eets</w>
run ners</w>
r ows</w>
pu ri
os es</w>
net working</w>
man aging</w>
l ined</w>
ha ve
h its</w>
exce ssive</w>
ex ternal</w>
W as</w>
P res
No v</w>
Ex am</w>
1 20</w>
pass enger</w>
mu d</w>
jus ti
cei ved</w>
a ke</w>
Tom oko</w>
L ou
who ever</w>
temp er</w>
speciali zed</w>
renew able</w>
reduc tion</w>
profe ssion</w>
oper ations</w>
oo o</w>
j p.
hi ding</w>
fin ed</w>
depen dency</w>
all y.</w>
ab le
ab ase</w>
Po kemon</w>
K now</w>
Hi ragana</w>
1. 5</w>
top ic
sur ing</w>
spect ac
pecu liar</w>
m ere</w>
l as</w>
hu mble</w>
g at
ful ness</w>
be ating</w>
anim ated</w>
Ma th</w>
well ..</w>
ra tional</w>
main taining</w>
lyri c</w>
ght -
e mission</w>
crea tion</w>
bit ten</w>
arti stic</w>
ari ous</w>
W OR
Ra dio</w>
Mar k</w>
M B</w>
si zes</w>
on na
hu morous</w>
gh ed</w>
fa bulous</w>
ea sed</w>
dri ves</w>
d ough</w>
cal ori
b .</w>
Mar ket</w>
M ai
C .</w>
va in</w>
under go</w>
t wins</w>
stor age</w>
some thing.</w>
pow ered</w>
new s/
k .
in qu
gg ling</w>
f old</w>
St one</w>
Li ber
9 5</w>
wr apped</w>
treat ments</w>
spot .com</w>
si te.</w>
sh amp
ri vers</w>
offici als</w>
mag nific
eleph ant</w>
de .</w>
correc ts</w>
asp x</w>
Her itage</w>
Guang zhou</w>
GI F</w>
・ ・</w>
vo cal</w>
tempor arily</w>
su es</w>
rac ing</w>
pal ace</w>
mu tual</w>
memori zed</w>
l ang</w>
je wel
hot test</w>
et ary</w>
cry st
cont acted</w>
consu me</w>
ci st</w>
c in
astoni shed</w>
al ds</w>
Wil li
U D
Tom orrow</w>
T hom
K .</w>
Caf e</w>
B all</w>
tack le</w>
sub mitted</w>
st in</w>
no ve
n ity</w>
loa ding</w>
la g</w>
informa tions</w>
hesi tation</w>
frustr ating</w>
flow s</w>
atten dant</w>
ai med</w>
a er
6 8
stron gest</w>
stea med</w>
sophom ore</w>
responsi bilities</w>
middle- aged</w>
memb er
happ y.</w>
faci al</w>
en sive</w>
ea ther</w>
dev ote</w>
dedic ated</w>
curricul um</w>
c kets</w>
Y an
T- shirts</w>
PIE CE</w>
On sen</w>
J ICA</w>
J I</w>
『 </w>
tal es</w>
stea dily</w>
sc are</w>
re ar</w>
prop ose</w>
k on</w>
ir re
indepen dence</w>
go ds</w>
ens able</w>
critici ze</w>
brow ser</w>
appli can
Pi ece</w>
Japan ,</w>
J un</w>
A W
0 s</w>
. 2</w>
u d</w>
to day,</w>
rub ber</w>
prev enting</w>
min gly</w>
immedi ate</w>
every one,</w>
dolph ins</w>
dic tation</w>
cica das</w>
an cing</w>
Ox ford</w>
D E
to x
tion -
soun ding</w>
sec tors</w>
sc or
rep orter</w>
re com
politici an</w>
plan ing</w>
particip ating</w>
neg lect</w>
lea dership</w>
blo cks</w>
W ak
S oba</w>
C our
AK B
1 ,000</w>
us ages</w>
th en
t less</w>
ri ses</w>
predic table</w>
n n
modi fied</w>
ma gn
ic e.</w>
graph ics</w>
gr ate</w>
en rolled</w>
easi est</w>
could &apos;t</w>
costu mes</w>
ck ers</w>
T im</w>
Smi th</w>
S ent
MS R</w>
Fa vorite</w>
A us
2 F
00 00
sustain able</w>
shou ting</w>
requ ests</w>
poi son
par ked</w>
inter face</w>
in fo
her oes</w>
gre y</w>
f i</w>
examin ed</w>
examin e</w>
col um
bi li
Thank sgiving</w>
T AK
Pre ss</w>
Mon go
Any way</w>
20 110
profession als</w>
out line</w>
out let</w>
origin ated</w>
mon th.</w>
lim its</w>
gh s</w>
equip ments</w>
enjoy ment</w>
bu mp
Tur kish</w>
O cean</w>
Lang -8
Can tonese</w>
･ </w>
wa stes</w>
snow s</w>
ori gami</w>
not .</w>
min g
land lord</w>
goog le
cra b</w>
clos est</w>
Ok ayama</w>
4 4
tw in</w>
m ud
lo s</w>
lin ks</w>
kn itting</w>
k un</w>
impati ent</w>
ign or
gi ri</w>
ele ment</w>
e ch</w>
discus sions</w>
cos tly</w>
ance st
UNIQ LO</w>
Ken do</w>
∀ </w>
sub stitute</w>
ru ption</w>
r ap</w>
pre vention</w>
person .</w>
org an</w>
lim iting</w>
kin gs</w>
he ated</w>
critici sm</w>
civi lization</w>
ca sually</w>
brow sing</w>
br ary</w>
auth ority</w>
affor dable</w>
W all</w>
S F</w>
King dom</w>
Intro duction</w>
＜ </w>
travel ers</w>
pro ven</w>
pa ins</w>
p orts</w>
ol d.</w>
occa sions</w>
ocar ina</w>
mar vel
i sh</w>
flav ored</w>
fin als</w>
dress er</w>
consist ent</w>
col lage</w>
c ents</w>
b and
applican ts</w>
ad mi
VER Y</w>
Re cently</w>
M ur
List ening</w>
Ike bukuro</w>
I V
G DP</w>
AT ION</w>
1 20
u k</w>
the ories</w>
tan cy</w>
surroun dings</w>
scul p
pe de
or -
op posed</w>
mix ture</w>
man kind</w>
ki d
hy brid</w>
ff e</w>
en roll</w>
e able</w>
bac teria</w>
ar o</w>
Wor d</w>
O ut
J unior</w>
AKB 48</w>
st ole</w>
speci alty</w>
shel ter</w>
seas onal</w>
se awe
seawe ed</w>
room .</w>
p ounds</w>
os is</w>
mista ken</w>
imit ate</w>
fri dge</w>
el ed</w>
dep th</w>
cou ghing</w>
chann els</w>
can di
after shocks</w>
a lists</w>
Michi gan</w>
I P</w>
H P</w>
G et</w>
Fu ture</w>
7 8
te ch</w>
survi ved</w>
st ability</w>
s ma
isol ated</w>
hun t</w>
ef s</w>
edi tor</w>
e ks</w>
constru ct</w>
cap tain</w>
c -
atter ed</w>
Wom en</w>
Pla y
Filip ino</w>
E li
An dy</w>
z ar
toni um</w>
s .com/
ro cks</w>
r y.</w>
in .</w>
immi gration</w>
ill nesses</w>
gener ating</w>
coo ks</w>
condition ing</w>
con ce
ck er
bos ses</w>
S W
&apos; it</w>
streng then</w>
state ments</w>
sh ore</w>
p ale</w>
indisp ensable</w>
hand made</w>
h ers</w>
confli cts</w>
clo ths</w>
Fin al</w>
ul a</w>
respon ses</w>
re aly</w>
one theless</w>
flu te</w>
employ er</w>
cre ature</w>
cooki e</w>
beauti fully</w>
at y</w>
appro val</w>
Vic tori
D J</w>
3 ,
terrori sts</w>
sy mb
serendi pit
re solutions</w>
ra m</w>
pr ene
po le</w>
pi le</w>
os pe
idi ot</w>
hun ger</w>
glo ves</w>
g t</w>
g ary</w>
ar oma</w>
ag e-
absor b</w>
ab oli
St or
S ong</w>
G hi
Communi cation</w>
B ic
reali se</w>
question na
pil low</w>
op position</w>
in expensive</w>
heli um</w>
fr om
fol ks</w>
deci des</w>
all owing</w>
ak ers</w>
ab normal</w>
S ol
Jan e</w>
B en</w>
. org</w>
u te</w>
su ck</w>
sli pped</w>
reali zing</w>
la yer</w>
kim chi</w>
hori z
fac ulty</w>
ent re
eag er
de vil</w>
cosme tic</w>
believ ing</w>
an cho
amate ur</w>
ab </w>
S how</w>
O b
K am
Hi ,</w>
G .</w>
t ance</w>
shi pping</w>
ref lected</w>
produc er</w>
pil ot</w>
pede stri
particip ation</w>
other .</w>
mother -in-law</w>
mb ers</w>
mar ine</w>
lux uri
less ness</w>
l ent</w>
in door</w>
bu ck
assu ming</w>
appro ached</w>
announ ce</w>
ad o
R en
you ,</w>
won t</w>
water fall</w>
sent ense</w>
sal aries</w>
r ope</w>
mo on
libr aries</w>
interview er</w>
interpre tation</w>
half way</w>
fin e.</w>
econom ically</w>
che ering</w>
ad jectives</w>
accur ately</w>
S S
Ex po</w>
Au stri
ss .</w>
restri cted</w>
onna ise</w>
n ate</w>
instruc tions</w>
ick y</w>
hon ori
fro g</w>
den ied</w>
cou sins</w>
clai ms</w>
chi p</w>
abun dant</w>
Me mor
L ot
ye t.</w>
ven ue</w>
survi val</w>
p anda</w>
ow a</w>
mone y.</w>
mm mm
mer its</w>
ma sks</w>
laz iness</w>
icul t</w>
hom e-
gen u
fir mly</w>
f ered</w>
eye sight</w>
e :</w>
dev oted</w>
credi ts</w>
con fec
buffe t</w>
bu bble</w>
ben to</w>
ac celer
ab le.</w>
P hysi
Glo bal</w>
F all</w>
A Y</w>
9 00</w>
y o-
wh it
ti dy</w>
r s</w>
pi er
perman ent</w>
peri ods</w>
on- line</w>
lo an</w>
lim itation</w>
he i
fi lial</w>
f ell
Tar o</w>
R ef
O k</w>
K FC</w>
C S
visi ons</w>
ph </w>
imp lied</w>
goo dness</w>
fe males</w>
cri pt</w>
cra shed</w>
cell- phone</w>
adm ired</w>
Publi c</w>
D D
Au ck
. This</w>
vi et</w>
vi </w>
v ine</w>
st un
sc ar</w>
rest room</w>
or ism</w>
listen er</w>
intellec tual</w>
es -
doc tor
bu ss
w age</w>
tea mm
simp ler</w>
repe ating</w>
re duces</w>
pour ing</w>
in cl
fru it
e dition</w>
di versity</w>
bi an</w>
absolu te</w>
Fin land</w>
Champ i
sti mulate</w>
star ing</w>
pow ers</w>
nostal gic</w>
ne s
logi sts</w>
le s.</w>
in ju
hur ried</w>
dri ll</w>
consider ably</w>
congrat ul
affec tion</w>
I ts</w>
Gr oup</w>
D ani
B ru
B E</w>
wor ship</w>
uni versal</w>
ta x
se ed</w>
pic ally</w>
job -
har d-
educ ate</w>
depos it</w>
co zy</w>
ci a</w>
c on</w>
b less
Z u
Kuma moto</w>
wi </w>
un fortunate</w>
te d
straw berries</w>
sing ap
reve aling</w>
lin ked</w>
kno cked</w>
instru ction</w>
ing :</w>
imp ul
fi st</w>
dis abled</w>
c en
autom o
T ay
Squ are</w>
M E
I rish</w>
C re
A y
4 7</w>
pro li
obse ssed</w>
n onetheless</w>
eth ics</w>
etc ..</w>
effec tiveness</w>
blog .
be aches</w>
V ir
F ast</w>
A mer
tis m</w>
s th</w>
ru gby</w>
ro ots</w>
prote cting</w>
posse ss</w>
org ans</w>
or der
make -up</w>
impro vements</w>
fer ry</w>
en z
ca st
Tan z
C ze
B ali</w>
&amp; _
soooo o</w>
sh ots</w>
non sense</w>
may onnaise</w>
mar tial</w>
l ler</w>
kin g-
j p</w>
er o
en gin
co ke</w>
ca shi
c c</w>
ad orable</w>
accompani ed</w>
S now</w>
C R
5 6
- p</w>
ti tu
la m</w>
hi me</w>
form at</w>
ed ,</w>
e co-
dump ling</w>
decl ining</w>
audi ences</w>
a tively</w>
Har a
Auck land</w>
A s
ur u</w>
tis sue</w>
t win
strugg led</w>
sti mul
si ster
pra yer</w>
p y
large ly</w>
hydr ange
g ani
f s</w>
expec tancy</w>
emi ssions</w>
disappo inting</w>
desi res</w>
dat abase</w>
conta ining</w>
challeng ed</w>
ali ze</w>
Th ough</w>
P ho
LO L</w>
Japanese- style</w>
sp oon</w>
sin k</w>
simil arly</w>
plu tonium</w>
magnific ent</w>
hon ey
grap es</w>
di le
communi ties</w>
a stron
U l
S tra
E f
C C
yuk ata</w>
spar k
reven ue</w>
re views</w>
oper ators</w>
now here</w>
mit ting</w>
jo int</w>
happ en
broad en</w>
a like</w>
Yama gata</w>
V ide
NE W</w>
Ghi bli
Com e</w>
whi sp
t sal</w>
stud y
rol ler</w>
reven ge</w>
pri or</w>
mor s</w>
mon keys</w>
men ber</w>
implement ation</w>
gi a</w>
dan cer</w>
che ating</w>
candi date</w>
ba thing</w>
Mi ddle</w>
J im</w>
Har vard</w>
Gr and
Gar den</w>
G W</w>
C of
C at
4 00
199 6</w>
v ary</w>
u me</w>
typh oons</w>
sha ved</w>
screa ming</w>
r at</w>
preten ded</w>
pit ch</w>
or z</w>
m oo
in visible</w>
hol es</w>
discipl ine</w>
conduc tor</w>
C l
C A
2 50</w>
supp lies</w>
substanti al</w>
sh oud</w>
propor tion</w>
musi c
ma id</w>
m s.</w>
institu tions</w>
i al</w>
ex port</w>
ed -
P an
O -
N T
Bhu t
vow el</w>
un k
these days</w>
sleep s</w>
sal es
lu ck
inst antly</w>
in er
han ami</w>
en vi
bother ing</w>
apart ments</w>
V e
H al
Fun d</w>
Bhut anese</w>
7 6
vir tu
tri cky</w>
sol o</w>
soci eties</w>
shi eld</w>
quar ters</w>
publi shing</w>
princi ples</w>
photo grapher</w>
mer it</w>
magn itude</w>
in stitution</w>
gui dance</w>
for ests</w>
fast est</w>
before hand</w>
Pri ze</w>
Mi ya
watch es</w>
versi ons</w>
thi ef</w>
sincer ely,</w>
se t
ro ck
resul ting</w>
pre ference</w>
impro ves</w>
imp li
imp acts</w>
don ated</w>
diag n
any how</w>
albu ms</w>
P L
Brea k</w>
utili ze</w>
the irs</w>
terr orism</w>
sh ita</w>
screa med</w>
pre positions</w>
nat ure
mo ti
mo s</w>
mic ro
intro duces</w>
he a</w>
gi e</w>
fu ture.</w>
en vel
disappo intment</w>
crac y</w>
consu ming</w>
condition ers</w>
bu ried</w>
U L
To yama</w>
Ma ke</w>
Ca mb
A .</w>
4 3</w>
4 1</w>
warm th</w>
sub tle</w>
reac tions</w>
quot es</w>
purch ased</w>
pur su
overwhel med</w>
marvel ous</w>
li sm</w>
in ch</w>
hello ,</w>
foun der</w>
flo ors</w>
fi ve-
desk top</w>
a tives</w>
a ss</w>
B al
- chan</w>
&apos; mas</w>
t ought</w>
rub bish</w>
pos t-
po et</w>
pen gu
nur ses</w>
nau ghty</w>
in som
encoura gement</w>
commit tee</w>
ch ard</w>
PC s</w>
Ch erry</w>
C in
B I
199 5</w>
word s.</w>
vulner able</w>
ulti mate</w>
rus sian</w>
ren ew</w>
re hear
n h
lo ve
iP hone
for mul
dist rac
cucu mber</w>
behavi our</w>
anony mous</w>
alo g</w>
abi li
Y u</w>
S ai
L ost</w>
K ai
Jo e</w>
Elec tric</w>
ur ge</w>
tori al</w>
the mes</w>
si ghts</w>
secre ts</w>
pu shing</w>
obli gated</w>
fish er
doub ts</w>
calori e</w>
book .</w>
be ac
aur ant</w>
ans .</w>
Moun tain</w>
Ghibli </w>
rel ay</w>
ra i
luxuri ous</w>
kne es</w>
in fin
exp anding</w>
dyna mic</w>
cul ar</w>
com modi
ca de</w>
T ad
Na tive</w>
Is ra
GL ISH</w>
B ank</w>
Ai kido</w>
toge ther.</w>
ss y</w>
shame ful</w>
secre tary</w>
r in
mush room</w>
mb er
ha shi</w>
gre ss</w>
e es</w>
cu ts</w>
compe tent</w>
cap ability</w>
bu ki</w>
T ru
Sea son</w>
S in
Raku go</w>
Ma j
D -
C old</w>
underst ands</w>
u x</w>
tra gic</w>
temp ura</w>
te ar</w>
ss ors</w>
ri ous</w>
pop u
pharma cy</w>
p ital</w>
lo gged</w>
in ations</w>
favor able</w>
faci lit
dis k</w>
de pri
consi sted</w>
ba ths</w>
P ow
O ther</w>
Mi d-
M ama</w>
Gir ls</w>
F la
Ed ward</w>
vacu um</w>
v ent</w>
stre tch</w>
s ors</w>
reci eved</w>
qu il
oma tic</w>
oli c</w>
mat er
mar i
lo cate</w>
ini cal</w>
hand ling</w>
goo .
full -
expre ss
dor i</w>
ba chel
b ot
In ception</w>
F ree</w>
D ep
Bo y</w>
youn g
up coming</w>
tal ler</w>
soy beans</w>
proce ed</w>
p ound</w>
op o
na mely</w>
me tap
initi ally</w>
con son
comm as</w>
can dies</w>
amaz ingly</w>
ac company</w>
Yama da</w>
Tex as</w>
O ut</w>
H om
F ur
Ch urch</w>
A C</w>
8 5</w>
3 1
2 40</w>
you t</w>
view point</w>
v et</w>
u ma</w>
t el
soci et
so ak</w>
shi p
resi dence</w>
poin ting</w>
pl s</w>
par alle
o id</w>
n ings</w>
kit ten</w>
g osh</w>
cott on</w>
br a</w>
becu ase</w>
ban anas</w>
ass er
aband on</w>
Re member</w>
Le ague</w>
D NA</w>
2 2nd</w>
worth while</w>
sen ses</w>
regu lation</w>
re turns</w>
ni sh</w>
multi -
mb ly</w>
li king</w>
i ca
gra ce
forei gn
es .
di ar
deli ci
dea ths</w>
cu lation</w>
coun ty</w>
ceremon ies</w>
ambigu ous</w>
agri culture</w>
adver b</w>
D el
C o</w>
C ir
1 N
／ </w>
tion ery</w>
theat ers</w>
shel ves</w>
sh ook</w>
prom oting</w>
pro s</w>
pro found</w>
ori zed</w>
opp ot
kn it</w>
inter act</w>
inten sive</w>
h on</w>
comm ented</w>
attra cts</w>
R &amp;
L ev
H A</w>
Fi re
6 6</w>
&apos; to</w>
wi tch</w>
ve g
un common</w>
tou gh
sequ el</w>
samp les</w>
regi stration</w>
re me
pass word</w>
ow e</w>
over sea</w>
now ,</w>
m ans</w>
kon w</w>
ki mon
it ori</w>
flu ency</w>
f oward</w>
dic t
decor ation</w>
Youn g</w>
Y aku
U F
Twi light</w>
Ki y
K ot
E u
D ad</w>
war a</w>
ul u</w>
sh o</w>
recy cling</w>
law yer</w>
human ity</w>
fru stration</w>
dr ome</w>
di arr
alter natives</w>
Y E
Sak amoto</w>
M ak
D ol
Bi ll</w>
AL L</w>
si a
scrat ch</w>
recomm en
postp oned</w>
ph one
pan cake</w>
ong -
emo ti
disor ders</w>
disadvant age</w>
de -
che er
ali st</w>
U mmm</w>
Rom an</w>
Mus li
For um</w>
C G</w>
― </w>
weal thy</w>
visi ts</w>
sti r
st an
resi gned</w>
re viewed</w>
pre ss
na tively</w>
issu ed</w>
inten tionally</w>
ea .</w>
divor ced</w>
collap sed</w>
abbrevi ation</w>
X &apos;mas</w>
So viet</w>
v an</w>
un healthy</w>
ton es</w>
ner .</w>
ing s.</w>
il y
he ared</w>
hand -
fa st-
el abor
du ties</w>
deli ght</w>
de e
d ingly</w>
cont ex
comm ing</w>
ca ge</w>
c c
atur ed</w>
acquaint ances</w>
Yu ki
R ice</w>
P ap
Mi le</w>
ver ing</w>
un likely</w>
un d</w>
time s.</w>
t ape</w>
sche mes</w>
rup ted</w>
revi sed</w>
o i
o e</w>
ne west</w>
na vi
mo dest</w>
mid- term</w>
li ghtly</w>
h m</w>
g al
full -time</w>
decl ared</w>
day .
col d.</w>
bloo dy</w>
b rain
ap es</w>
adv ances</w>
U r
R&amp; D</w>
L a</w>
En try</w>
- F
t t</w>
police man</w>
oun ded</w>
or ph
hon y</w>
fr ank</w>
entre prene
enter tain</w>
clari fy</w>
ag ara</w>
PS P</w>
P sy
No bel</w>
Nar uto</w>
In du
Hol land</w>
11 .
.com .
war ned</w>
view ers</w>
ta sting</w>
swe ater</w>
so .</w>
pe ach</w>
pa irs</w>
ner ve</w>
motor bike</w>
ma -
lea k</w>
k ou
ex ited</w>
do es
di gn
convin ce</w>
comp ose</w>
chi ll</w>
as p</w>
ari se</w>
agen cies</w>
Oper a</w>
O mi
Hos pital</w>
Fan ta
Econom ics</w>
E r
C e
B ye</w>
ty pically</w>
th ick
suppor ters</w>
sli des</w>
ref le
ra bb
h l</w>
friend s,</w>
di ac</w>
cei ve</w>
be low
a sh</w>
Wee k
St an
Na me</w>
Di ego</w>
v or</w>
tire dness</w>
sc and
sa una</w>
rec alled</w>
proli fer
p ays</w>
ow l</w>
kic ked</w>
j elly</w>
inse ct</w>
i Tun
deva stating</w>
descri p
contribu tions</w>
can ned</w>
ca m</w>
P y
O se
Me dic
D ance</w>
smo ker</w>
serva tions</w>
ro asted</w>
mi st
me ats</w>
hil ls</w>
gr own
fra gr
d ants</w>
cr ane</w>
celebri ty</w>
be aten</w>
archite c
accep ting</w>
U. S</w>
R ight</w>
M A</w>
J ac
I ra
I l
199 7</w>
zz z</w>
yy yy
wi der</w>
ve ter
un its</w>
teri or
sl ope</w>
shi ko</w>
shamp oo</w>
re pl
r on</w>
prejudi ce</w>
portra it</w>
mor i</w>
moder ate</w>
limit ations</w>
le vel
inev it
d &apos;
business man</w>
automo bile</w>
as on</w>
art work</w>
and as</w>
Z ac</w>
TO R
S ud
Be fore</w>
8 8</w>
3 1st</w>
symb ols</w>
se p
satelli te</w>
mi ce</w>
lear ns</w>
ji -
he at
fi le
fami li
di ary.</w>
awk war
arro gant</w>
W oo
Pea ce</w>
H a</w>
Gr and</w>
Con fu
Com mit
Chi le</w>
ulti mately</w>
trop olitan</w>
trans it</w>
resi dential</w>
prin ts</w>
orient ation</w>
opp ose</w>
mar ch</w>
m elt</w>
insom nia</w>
four -
fat al</w>
e dly</w>
curr ency</w>
avoi ding</w>
ali en</w>
ad d
Xi a
S ir</w>
Pro vi
Cze ch</w>
CO 2</w>
su ited</w>
sc an
re tri
mon k</w>
lun g</w>
fol ding</w>
extra ordinary</w>
ess ence</w>
er o</w>
emoti cons</w>
dr opping</w>
conjun ction</w>
brea ds</w>
boy friends</w>
bo thers</w>
be st
an esthe
Tom o</w>
F OR</w>
E .</w>
Cof fee</w>
▽ </w>
y uki</w>
we gian</w>
ti ve.</w>
si um</w>
pla ce.</w>
pi ani
oo oo</w>
o date</w>
ne at</w>
ma sters</w>
ga me
foo d.</w>
coun ted</w>
compon ents</w>
care ers</w>
b ol
b ang</w>
Ste ph
R ose</w>
L en
L AS
K ate</w>
Exa mination</w>
xx x</w>
t ness</w>
proper ties</w>
paragrap hs</w>
p y</w>
me mo</w>
ir on
ing .
imm er
h int</w>
fresh men</w>
fe atured</w>
ex cur
elec ted</w>
desi red</w>
cop i
be i</w>
audi </w>
as is</w>
Yang yang</w>
S wee
R ay</w>
O ni
N ep
L .</w>
u ries</w>
theat re</w>
ri e</w>
old- fashioned</w>
mista ke
jud ging</w>
hospit ality</w>
hand writing</w>
good- looking</w>
gad gets</w>
fu tsal</w>
fi xing</w>
f ence</w>
emplo y</w>
cul t</w>
consul ting</w>
cheap est</w>
N ever</w>
I bar
Ch icken</w>
A ct</w>
8 5
3 60</w>
y elled</w>
wa sh
uti ful</w>
tur ing</w>
tru m
thin k
terri tory</w>
ter ing</w>
re solved</w>
pup ils</w>
prefec tures</w>
poli tely</w>
ori ous</w>
mi xing</w>
j ong</w>
inter action</w>
iTun es</w>
girl friends</w>
fri es</w>
eu than
come dians</w>
b rains</w>
auth orities</w>
appro aches</w>
T ele
Spe ech</w>
Se cre
Pro gram</w>
F ac
A tt
wa ked</w>
simil arities</w>
se wing</w>
re ha
puzz led</w>
prote in</w>
pla ce
per mit</w>
oper ated</w>
mean time</w>
lot .</w>
life -
lef to
honori fic</w>
ener gy
di ous</w>
dete ctive</w>
decor ations</w>
de terior
de als</w>
cur tain</w>
contro ver
categ ories</w>
cap ture</w>
cal mly</w>
be ar
ance .</w>
amp le</w>
S L
P D
O u
K hand
EN GLISH</w>
v able</w>
swe ating</w>
st ove</w>
speci fy</w>
regi onal</w>
pr o</w>
peri o
p ly</w>
omi ya</w>
obstac le</w>
l ap</w>
diale cts</w>
che mic
ca bin
be loved</w>
ancest or</w>
X mas</w>
U me
Sa ke</w>
S on
Pr in
P ort
P lan
Kit ty</w>
Egy p
wh ales</w>
we ther</w>
under wear</w>
t ches</w>
so li
so ..</w>
prac tically</w>
mm ..</w>
kar ate</w>
gree dy</w>
gol d
gin gs</w>
enter taining</w>
displa ys</w>
diagn osed</w>
de fec
compli ment</w>
acce s
Ti ger</w>
Stu dio</w>
Rest aurant</w>
Mari o</w>
Fr an
Doc tor</w>
Bo ard</w>
B ad</w>
8 6
1 /
you -
vege tarian</w>
universi ty.</w>
ro ast</w>
respe ct
re scu
punctu ation</w>
mic rop
hot -
har d.</w>
gard ens</w>
diarr hea</w>
Nat to</w>
N ature</w>
A ssi
A Z
- 2</w>
y oshi</w>
ver .</w>
tat too</w>
recep tionist</w>
or ang
ma ki</w>
je ct
j uni
hi d</w>
er s,</w>
e ct</w>
din os
cri teria</w>
confe ss</w>
col our
appli ance</w>
air e</w>
U R</w>
Ale x</w>
we d
ver i
us yu</w>
thir sty</w>
squ id</w>
s nor
ok onomiyaki</w>
mo del
mea sured</w>
imp ly</w>
gl ory</w>
f t
do -
d yed</w>
cop y
commu ter</w>
ble -
Y AK
S AK
P P
L i</w>
IF A</w>
F ort
3 000</w>
up grade</w>
separ ation</w>
pic ture
jp. youtube.com</w>
invol ve</w>
ge t
fi erce</w>
fe ars</w>
eth nic</w>
es ..</w>
discoura ged</w>
dile mma</w>
depart ments</w>
de shiko</w>
de ck</w>
con v
ci dent</w>
char t</w>
Pl an</w>
L y
Ea stern</w>
Correc t</w>
Camb ridge</w>
C ari
w ou
u mp
tr ance</w>
t sun
symp tom</w>
star ving</w>
sp ace
se al</w>
sa kura</w>
reflec tion</w>
invest ing</w>
id le</w>
grap e</w>
e ur
depen dence</w>
d ar</w>
con stitution</w>
ci ao</w>
but ..</w>
belon ging</w>
Uni versi
Thom as</w>
Th ings</w>
O pen</w>
L isa</w>
Cho col
year s-
sna il</w>
sli ce</w>
shi on</w>
sh it
serendipit ous</w>
see mingly</w>
rep ort
pri vi
own .</w>
os hop</w>
mist ook</w>
lon ging</w>
inter n</w>
ii ii
hospitali zed</w>
hoo ked</w>
en vious</w>
cashi er</w>
be g</w>
bachel or</w>
b id</w>
archite ct</w>
ar u</w>
a mon
Victori a</w>
Peter son</w>
John ny</w>
J L
Hi k
Gun dam</w>
4 6</w>
wan dering</w>
volun tary</w>
tea m
ste ep</w>
p iled</w>
ma gical</w>
fini shes</w>
example :</w>
e speci
di ci
co on</w>
che on</w>
ca tion.</w>
No v
J ones</w>
H 1N
wh ale</w>
tab le
susta in</w>
summari ze</w>
sa ma</w>
regrett able</w>
li min
dign ity</w>
con fron
competi tions</w>
a e</w>
S har
Nor wegian</w>
Mar tin</w>
Cor por
vit amin</w>
th read</w>
run ner</w>
ri c
reflec ts</w>
mom s</w>
l on</w>
know .</w>
gra bbed</w>
de but</w>
composi tions</w>
clu m
cand les</w>
brea th
Z oo</w>
S im
S D</w>
PC O</w>
Or gani
Mi ch
M BA</w>
E di
A ging</w>
7 2</w>
200 8
stud ent.</w>
sentence s.</w>
pi pe</w>
mo i
min ority</w>
lab our</w>
distur b</w>
disc los
dif fr
co .jp</w>
classi fied</w>
ch ase</w>
ballo on</w>
S che
Li brary</w>
F oun
Ale x
2 chan</w>
vi gor
vamp ire</w>
ro yal</w>
r inging</w>
quali fications</w>
pol y
mel ted</w>
journ al
inevit ably</w>
cler ks</w>
a vi
Stud ent</w>
F IFA</w>
D P
An pan
2 3rd</w>
wea ker</w>
u l</w>
tr ends</w>
tion ,</w>
sub stance</w>
spir ing</w>
soci ally</w>
sent enses</w>
ru in</w>
l st</w>
insp ire</w>
in tr
i .
equ als</w>
en rich</w>
dele ted</w>
dele te</w>
de pressing</w>
cent ers</w>
be verage</w>
bad .</w>
b ore
athle te</w>
archi ves</w>
al ert</w>
TE ST</w>
O ver
Khand ani</w>
H R</w>
F il
Commit tee</w>
Bo th</w>
B U
AP P
1 .html</w>
wr ink
termin al</w>
symp ath
situ ated</w>
pal m</w>
mi le</w>
mel ting</w>
lo ads</w>
hair dresser</w>
gra ce</w>
foc uses</w>
fea sible</w>
explo ded</w>
excep tions</w>
deman ding</w>
cru sh</w>
cre w</w>
butter flies</w>
brow se</w>
ac cent
Y A</w>
T SU
Ri e</w>
M en</w>
Hir o</w>
Ex peri
A ge
wi shing</w>
war ri
un fortun
tt ering</w>
tre ating</w>
so- so</w>
se ssions</w>
resi stance</w>
puni shed</w>
pri son
ms n</w>
kilo grams</w>
journa list</w>
inv ent</w>
illu strations</w>
he ctic</w>
go -
fu ck</w>
fr ying</w>
exc uses</w>
deter mination</w>
deri ved</w>
col a</w>
ambi tion</w>
AR E</w>
. 00</w>
un sure</w>
st alls</w>
scar f</w>
rabb its</w>
p ills</w>
investi gate</w>
int on
inspe ction</w>
inher ited</w>
cre ep
Some thing</w>
J in
Hat oyama</w>
H an</w>
Con ver
wat er-
tra l</w>
ta il
t is</w>
stereot y
sc attered</w>
recommen dations</w>
pri ced</w>
pr one</w>
p /
n .</w>
mi ss
los er</w>
ligh ted</w>
j ail</w>
g al</w>
fami ly.</w>
f ter</w>
di g</w>
d ge
ce u
calcul ate</w>
bloom ed</w>
after no
Toku gawa</w>
H ope</w>
H all
Che mi
5 2</w>
&apos; T</w>
ya hoo
twi tter
sh ool</w>
pre serve</w>
pic s</w>
ner ves</w>
mu ggy</w>
mol ten</w>
l or
it ch</w>
hard ware</w>
fe min
di sch
coun tless</w>
b are</w>
ani an</w>
aller gic</w>
accor dingly</w>
Sy stems</w>
Pro f
O p
Hara juku</w>
D ef
C ath
ver t</w>
top s</w>
the ore
sha de</w>
sen se.</w>
ru ined</w>
questionna ire</w>
qu een</w>
p age
out going</w>
mb les</w>
mand atory</w>
ly ..</w>
indic ated</w>
i le</w>
ho ly</w>
har v
eli minate</w>
dang ers</w>
cabin et</w>
ang -
accu racy</w>
Te a</w>
S audi</w>
S E</w>
P M
L ook</w>
Kan azawa</w>
En d</w>
Bea u
un -
trav elled</w>
tr ay</w>
thumb </w>
spin ach</w>
regre ts</w>
r u</w>
kno ck</w>
ga tions</w>
fail ures</w>
exten sive</w>
du ck</w>
deli ber
cultiv ate</w>
comm erce</w>
allow ance</w>
actre sses</w>
Su mi
Kat akana</w>
H1N 1</w>
volcan o</w>
tun es</w>
stu b
spr ink
seven th</w>
serv ant</w>
sar ca
resi gn</w>
re verse</w>
on ic
o xy
mind set</w>
member ship</w>
g ni
fail ing</w>
eager ly</w>
d addy</w>
cy cles</w>
controver sy</w>
consul tant</w>
bur nt</w>
avoca do</w>
J on
. You</w>
simul taneously</w>
ra -
mel tdown</w>
less er</w>
le gen
ki yaki</w>
in o
in directly</w>
gad get</w>
fir ms</w>
distribu tion</w>
be ati
acqu ired</w>
Y U
T esting</w>
Ni agara</w>
IK EA</w>
Hak odate</w>
En viron
Boo ks</w>
u ce</w>
ten ess</w>
star ring</w>
si h</w>
re started</w>
ra il</w>
mot to</w>
monit oring</w>
mid term</w>
ligh ting</w>
heal ing</w>
ge l</w>
ea sing</w>
con ge
can e</w>
c ows</w>
S etsu
Rus sians</w>
F er
Ar tic
ti es.</w>
st amp
robo tic</w>
re form</w>
post card</w>
pe ar
li ans</w>
le s
in cur
guit ari
fre inds</w>
ex it</w>
el and</w>
contribu ting</w>
busi er</w>
beca sue</w>
apo logy</w>
W ant</w>
TE PCO</w>
Di rec
x -
vo id</w>
uu uu
sp here</w>
selec ting</w>
sc old</w>
satis fying</w>
prom ises</w>
pre served</w>
la sting</w>
la mp</w>
kit a</w>
k k</w>
fe ar
che ated</w>
c tives</w>
T op
H yo
Ba se
20 10
spi der</w>
sin ess</w>
sh -
pollu ted</w>
pick led</w>
parti cles</w>
pan el</w>
ku -
hil arious</w>
ham burgers</w>
fun ni
esc al
di um-
der n</w>
de d.</w>
at e.</w>
ai ds</w>
agri cultural</w>
Po int</w>
P E
15 0
v es
use .</w>
ta ils</w>
susp icious</w>
suit case</w>
ste in</w>
separ ately</w>
s ni
respon ded</w>
prepar ations</w>
pre limin
ph oned</w>
non y
ha tt
ex clud
do s</w>
cri tic
countr y.</w>
compani on</w>
bu ry</w>
bac ked</w>
bac co</w>
achiev ements</w>
Vide o</w>
Qu e
P ir
MP 3</w>
M ach
J ay</w>
G old</w>
Ch ap
A ward</w>
3 2
vi su
v es.</w>
tt ers</w>
sub sequ
si r</w>
si onal</w>
re viewing</w>
r ating</w>
p per
net works</w>
in convenience</w>
emo tionally</w>
comm ent
achiev ing</w>
Yuk ata</w>
Y ak
W u
L un
Di sc
AN A</w>
AM A</w>
sp ort
se same</w>
schedu les</w>
sc ream</w>
rel ating</w>
re marks</w>
pe ssi
law n</w>
gra ded</w>
fort able</w>
do or
cu p
comprom ise</w>
chi -
bu z
bil li
Don alds</w>
Dic tionary</w>
Cari b
4 29</w>
wi re</w>
w ound</w>
tri gger</w>
tab let</w>
subordin ates</w>
s burg</w>
pod casts</w>
minimi ze</w>
in san
honest y</w>
func tional</w>
en ri
ch ment</w>
bb les</w>
acces sible</w>
accep tance</w>
Ni pp
M S</w>
H ide
Con cer
8 7
. -</w>
zu shi</w>
up stairs</w>
tommor row</w>
tar o</w>
so dium</w>
interpre t</w>
ful filled</w>
environ ments</w>
disch ar
def end</w>
conne ctions</w>
chu an</w>
ap t</w>
Wonder land</w>
Tay lor</w>
T E</w>
Swe dish</w>
P hone</w>
Nor way</w>
Mit su
En gli
Ed 6
Do g</w>
AM I</w>
years- old</w>
u sion</w>
to ll</w>
strang ely</w>
sof tly</w>
sch i
re in
program mes</w>
po ison</w>
om ori</w>
me chan
high- school</w>
h ..</w>
gra der</w>
et .</w>
engin es</w>
dough nuts</w>
desi rable</w>
beac use</w>
be tra
b iting</w>
Rep ort</w>
Pla ce</w>
PS 3</w>
I w
Bu il
univer city</w>
sy nony
stri ve</w>
sli ces</w>
pot tery</w>
pe ti
opp y</w>
minu te
me ssed</w>
k oku</w>
heavi er</w>
h ir
gu ide
grocer ies</w>
gard ening</w>
for bi
fe eding</w>
enti tled</w>
cover ing</w>
chest nuts</w>
bom bs</w>
R os
P O</w>
J or
IE N
Ex change</w>
Dani el</w>
Coo led</w>
200 90
understand ings</w>
t os
sw ol
stoc ks</w>
out weigh</w>
oo p</w>
oc o</w>
mechani sm</w>
kin s</w>
jewel ry</w>
h ka</w>
gh ten</w>
g ang</w>
en na</w>
deli ght
decl ined</w>
company .</w>
bio logical</w>
bar gain</w>
b oshi</w>
addic tion</w>
V S</w>
Shir in</w>
S n
N &apos;T</w>
H all</w>
G S</w>
Ar ch
.edu /
un predictable</w>
sci ssors</w>
part -
p andas</w>
o live</w>
min eral</w>
light ning</w>
honey moon</w>
g st</w>
fragr ance</w>
fa ils</w>
excur sion</w>
er u</w>
distribu ted</w>
conver t</w>
cl ue</w>
business men</w>
To eic</w>
Philipp ine</w>
K AR
A F
8 9
Ⅱ </w>
will ingly</w>
we dd
ti ful</w>
syl lab
spo iled</w>
sh t
sh or
ra ys</w>
pos ture</w>
pe tals</w>
over -
organi zing</w>
o x
no tion</w>
n an</w>
mi a</w>
in jection</w>
ice cream</w>
hu gged</w>
dra stically</w>
col ours</w>
bru shing</w>
appro ved</w>
U ra
Ty ph
English ..</w>
C os
ten se.</w>
smart phone</w>
sil ently</w>
sa ves</w>
rec rea
que ue</w>
neigh boring</w>
lion aire</w>
inte grated</w>
infec tion</w>
h older</w>
geo graphy</w>
figh ter</w>
el a</w>
cor ruption</w>
ck en</w>
acqua inted</w>
Y Y
Pop ulation</w>
Hea ven</w>
G M
B ang</w>
AS AP</w>
｀ </w>
・・ ・・</w>
yuk u</w>
th ai</w>
ta ko
pregn ancy</w>
moun tain
mon u
microp hone</w>
it y.</w>
i on</w>
hamp er</w>
eng age</w>
ear nest</w>
di c</w>
de ff
d ou</w>
cri es</w>
cl inical</w>
bo om
ass y</w>
an ity</w>
Y outh</w>
S O</w>
Nor thern</w>
Mi chel
Li st</w>
L I
H T</w>
Char les</w>
6 7
10 1</w>
vari eties</w>
v is</w>
tic ul
teen age</w>
se -
ri -
pe d
oper ator</w>
ood le</w>
master ing</w>
lo go</w>
li ze</w>
kimon os</w>
ic on</w>
destru ction</w>
cor d</w>
car t</w>
ca sin
Y eah</w>
Scot land</w>
S hop
S I
Hi me
G on</w>
D ru
A la
A B</w>
6 8</w>
- 4
vow els</w>
vacc ine</w>
tra il</w>
to e</w>
squ ee
scrip ts</w>
re f</w>
on ,</w>
form ally</w>
fle sh</w>
faul ts</w>
entu res</w>
d ye</w>
ble ssed</w>
batter ies</w>
bank rupt</w>
T- T</w>
T raining</w>
Q U
OO OO
M L
Ky usyu</w>
Bl ossom
B each</w>
5 6</w>
5 4</w>
wol f</w>
wal k
uk /
trum pet</w>
str ator</w>
mea sure
m alls</w>
liter al</w>
hur ri
est ee
di ve</w>
dete ct</w>
der er</w>
cur se</w>
cour te
cl ay</w>
chr onic</w>
car pet</w>
buck wheat</w>
ank le</w>
and .</w>
a th</w>
S ara
R .</w>
Pres ent</w>
O l
Na deshiko</w>
N ing
Kaz u
G E
B log</w>
ya hoo</w>
voca list</w>
time ..</w>
the ses</w>
so da</w>
out doors</w>
op es</w>
o- chan</w>
not ed</w>
leg ally</w>
ku ji</w>
gui ded</w>
ex- boyfriend</w>
conven tion</w>
che ek</w>
anti que</w>
ang o</w>
an ing</w>
Wor ds</w>
Wester ners</w>
W ind</w>
U P</w>
Setsu bun</w>
S S</w>
R MB</w>
Provi dent</w>
P os
OO D</w>
K om
EN T</w>
B at
.blog spot.com</w>
- bye</w>
z ona</w>
to es</w>
ti mer</w>
sy r
stra w</w>
se mi-
peace fully</w>
osu ke</w>
op hone</w>
on sen</w>
nee d
la cks</w>
ka -
ir regular</w>
in i</w>
far ming</w>
exagger ated</w>
evi dent</w>
er ies</w>
eigh teen</w>
discover ies</w>
der ella</w>
com pati
buss iness</w>
bl own</w>
bio graphy</w>
accu mulated</w>
Willi am</w>
Sher lock</w>
Sa int</w>
Per fect</w>
Gi fu</w>
wrest lers</w>
whi lst</w>
v oting</w>
un employed</w>
ter -
seas oned</w>
s _
mach in
m aple</w>
k atsu</w>
in n</w>
gall ery</w>
g ang
cou ch</w>
ch asing</w>
cap tured</w>
bu sy
an do</w>
ai ming</w>
ago ,</w>
Tra vel</w>
S U</w>
M L</w>
Less on</w>
C OM
Bo at</w>
Base ball</w>
B L
y or
sequ ence</w>
sc ope</w>
rep orting</w>
recogni tion</w>
rec ycle</w>
que tte</w>
progre ssive</w>
pri ce
on ..</w>
oc curr
metap h
manufactur ers</w>
liter ary</w>
ken do</w>
il es</w>
hur ting</w>
hatt an</w>
gr oun
fore head</w>
firef lies</w>
ent ers</w>
en dea
desp air</w>
comp en
b ers</w>
ad mit
Sha ke
Kim chi</w>
J AL</w>
I ce</w>
D C</w>
C at</w>
Bel gi
AY A</w>
2 /
wi r
tra ine
ter ed</w>
spe c
s lang
nu ances</w>
lo ad
invest ed</w>
in ary</w>
implement ing</w>
imp lan
fore most</w>
fir st
fi ghts</w>
contain er</w>
adap ted</w>
accompli shed</w>
U ta
Tal k</w>
Ose chi</w>
E 5</w>
D rea
D R
B illy</w>
v agu
ty ped</w>
prev ents</w>
ot su
inju ries</w>
in complete</w>
fra gi
follow ers</w>
e h</w>
di men
de ple
cho ir</w>
book s.</w>
at .</w>
HD B</w>
H EL
was abi</w>
twitter .com</w>
tt a</w>
ti er</w>
so de</w>
six ty</w>
scen ario</w>
ri ght.</w>
rec order</w>
re y</w>
quot ed</w>
prolifer ation</w>
piani st</w>
ph on
pessi mi
per t</w>
pa inters</w>
hh hh</w>
hard ship</w>
enhan ced</w>
develop er</w>
clear ed</w>
che cks</w>
bo ld</w>
beati ful</w>
be et
amaz on
Ken ji</w>
KY O</w>
Ju li
Fr ank
Carib bean</w>
3 days</w>
wi pe</w>
we ir
v in</w>
swi m
sw allow</w>
sk ate</w>
seas oning</w>
satis factory</w>
recent ly.</w>
re tail</w>
na ments</w>
morn ings</w>
mb s</w>
ma m
jud gment</w>
g ons</w>
exhi bit</w>
cl ar
chi li</w>
ad dressed</w>
S he
Medi cal</w>
J es
Hai ku</w>
H E
Bo ys</w>
Bic ycle</w>
Bel ar
Av ril</w>
00 AM</w>
with draw</w>
wat ashi</w>
stub born</w>
slu mp</w>
sh .</w>
re ject</w>
pi gs</w>
on i</w>
los es</w>
like wise</w>
inc enti
imagin ary</w>
g ments</w>
f on
experi mental</w>
diag nos
con ci
chest er</w>
bl in
bet es</w>
an e
W he
Tokyo .</w>
N ations</w>
N ap
G og
Fu ll</w>
C ro
C er
z om
un certain</w>
tri cks</w>
tion :</w>
stu di
smo ked</w>
sign als</w>
qui si
prosper ity</w>
pronoun s</w>
off ensive</w>
n ine
mon sters</w>
lea ther</w>
la d
la bel</w>
i zed</w>
g ul
er ence</w>
deser ves</w>
consider ate</w>
char ges</w>
at tain</w>
app s</w>
a ,</w>
T T
Si b
S on</w>
Prof iciency</w>
J R</w>
IC E</w>
Hol mes</w>
Engl sih</w>
Col bert</w>
Bri dge</w>
6 4</w>
20 s</w>
20 50</w>
0 5
tr apped</w>
ti ve-
ther -in-law</w>
tex ture</w>
sket ch</w>
p el
nove list</w>
na use
le le</w>
le af
cica da</w>
chick ens</w>
bac on</w>
amon gst</w>
S am</w>
P ep
Coun try</w>
B S</w>
5 000</w>
. mp3</w>
wide spread</w>
tre ats</w>
ti l</w>
ten ded</w>
suspe cted</w>
sp la
prom in
prelimin ary</w>
off -
obe sity</w>
now ..</w>
neu tral</w>
mang o</w>
in dul
genu ine</w>
fab ric</w>
f ing</w>
egg plant</w>
e ti
design ated</w>
countri es.</w>
contro lling</w>
construc ting</w>
conqu er</w>
compar atively</w>
clum sy</w>
cer am
boo th</w>
be i
appe aling</w>
app ri
answer :</w>
Per son
Ni hon
Fin ally</w>
E U</w>
7 2
t ours</w>
si on.</w>
sever ely</w>
sa il
s .html</w>
s -</w>
p ad
o v</w>
net /
neck lace</w>
mm mm</w>
infer ior</w>
home made</w>
flat s</w>
ferti lity</w>
el y.</w>
ear th
cryst al</w>
con fortable</w>
book shelf</w>
blo cked</w>
beli efs</w>
ali ens</w>
al located</w>
S oc
Re al</w>
N et</w>
Hay ao</w>
B lo
Ari zona</w>
AT E</w>
9 8</w>
ver sus</w>
un g
str ay</w>
soft ball</w>
shu ttle</w>
s key</w>
relax ation</w>
re ser
purch asing</w>
ow -
mean .</w>
lo cations</w>
le ep
l ing
invest ors</w>
h iring</w>
g an
flav ors</w>
fi er</w>
ex iting</w>
deal t</w>
cof fe
c use</w>
bi tion</w>
Toshi ba</w>
Peter sburg</w>
NO W</w>
Mu si
Har u
Gi ve</w>
Ch all
9 -
wi ch</w>
ver sa</w>
va lid</w>
sur gical</w>
sk unk
question :</w>
ki soba</w>
foun tain</w>
eye br
evacu ation</w>
conv ini
air planes</w>
Val ley</w>
TO KYO</w>
TH IS</w>
Psy cho
Mi e</w>
Me dia</w>
F ol
Col om
Co ast</w>
Char lie</w>
B F</w>
5 1</w>
zu mi</w>
ya su</w>
well ,</w>
wan der</w>
toi lets</w>
swol len</w>
skir ts</w>
shar ply</w>
pre school</w>
p ine</w>
min d.</w>
identi fied</w>
i res</w>
house wives</w>
he hehe</w>
dis liked</w>
corpor ations</w>
conclud ed</w>
col li
blu e
al way</w>
Sof t
Ra in</w>
Man hattan</w>
Isra el</w>
I d</w>
Comm unity</w>
y ness</w>
v om
unic ate</w>
tur key</w>
thin k.</w>
skill ful</w>
repla cement</w>
per mitted</w>
pe e</w>
o za</w>
movi e.</w>
man .</w>
ma i</w>
incenti ves</w>
gold fish</w>
exe cutive</w>
euthan asia</w>
deta il
demo cracy</w>
cop ied</w>
bul lying</w>
bul lied</w>
bb c
b ond</w>
anno y</w>
accu mulate</w>
W ang</w>
Stud ents</w>
Say ing</w>
Ka buki</w>
Gra du
Elec tr
ES S</w>
E IK
Bab y</w>
wiki /
we ster
thir teen</w>
teamm ates</w>
tako yaki</w>
sing .</w>
sig nature</w>
se mic
re processing</w>
pan cakes</w>
nic o
lon ged</w>
lingui stics</w>
jud ged</w>
inter section</w>
in appropriate</w>
htt ps</w>
home works</w>
guitari st</w>
ge ons</w>
free ze</w>
fell ows</w>
compreh end</w>
bu sh</w>
appo inted</w>
Tea m</w>
T IME</w>
Ri chard</w>
M C
Hall o</w>
Chocol ate</w>
Aus sie</w>
y an</w>
ver bal</w>
up grading</w>
tra iler</w>
tr e</w>
sk a</w>
sht ml</w>
ro e</w>
prot ot
ot aku</w>
ob jec
n ick</w>
ma x</w>
landsc apes</w>
j am
iron ically</w>
inter nation
insul a</w>
inser t</w>
ici an</w>
gra in</w>
cour ce</w>
ch er
cent uries</w>
can -
bou quet</w>
b ine</w>
M US
Le on
K o</w>
Hyo go</w>
Han eda</w>
G lee</w>
Econom ic</w>
wit ne
un ited</w>
syr up</w>
sub stances</w>
stri cken</w>
st on</w>
soun d
re phrase</w>
prin ting</w>
pac ks</w>
ne t.</w>
mer chan
k. or.jp</w>
intri gu
hel met</w>
ful filling</w>
fre ind</w>
environ ment
cra ck</w>
con fer
cat er</w>
ble eding</w>
be ds</w>
U G
U -
S ON
Mi ku</w>
Fri ed
E V
Anpan man</w>
A me
60 s</w>
19 80</w>
0 7
- fried</w>
ven ess</w>
ti ghtly</w>
st all</w>
seri al</w>
sa ya</w>
re ver
out -
mat su
la mb</w>
l ment</w>
invest ments</w>
g ence</w>
flo at</w>
ear li
dr op
critic al-
cal ender</w>
ca ution</w>
analy zing</w>
S usan</w>
P A</w>
L FR</w>
Japanese- English</w>
Gi on</w>
G od
Ei ther</w>
Cin derella</w>
Bla ck
30 pm</w>
00 yen</w>
week end.</w>
trans parent</w>
tradi tionally</w>
teen th</w>
si bl
ri val</w>
proce ssed</w>
ph er
org/ wiki/
inton ation</w>
ev al</w>
cra fts</w>
convin cing</w>
contribu tes</w>
circu it</w>
bra ss</w>
avo id
asse ts</w>
Ti gers</w>
Tea ching</w>
Tanz ania</w>
T hi
Sun days</w>
Shake spe
S wan</w>
MR T</w>
Hun ter</w>
Hear t</w>
F ire</w>
C ru
Austri a</w>
with stand</w>
to bacco</w>
three- day</w>
sp oil</w>
sh iny</w>
sci ence
ro cket</w>
reli ability</w>
po etic</w>
our self</w>
ni cal</w>
me te
in- law</w>
ha s
ha hahaha</w>
grace ful</w>
g our
fli ghts</w>
dou ble-
diss ol
ci us</w>
che wing</w>
ch ur
ch ant</w>
auth enti
app lies</w>
ado le
W BC</w>
Sta ti
S ex</w>
Mi xi</w>
K ur
K agawa</w>
Christi anity</w>
4 9</w>
z en
w ow</w>
ta i</w>
t ari
signific ance</w>
re str
r oof
pros titu
pat ri
nic er</w>
han dy</w>
gra m
fa me</w>
eni x</w>
e ternal</w>
d ences</w>
cr ap</w>
cop ies</w>
colum n</w>
argu ing</w>
app la
Wri te</w>
On line</w>
Ni shi
Mi ke</w>
M is
L ine</w>
Ira q</w>
IL L</w>
H ER
Gog yo
F oot
Belgi um</w>
An na</w>
Ad mini
5 9</w>
y ama
swi tched</w>
sho ots</w>
sen ds</w>
se s.</w>
sand als</w>
ru ins</w>
rr rr
r en</w>
pul ling</w>
pro ves</w>
preten ding</w>
oxy gen</w>
om itted</w>
obli ged</w>
mo du
invol ving</w>
head set</w>
gu ards</w>
g l</w>
en dy</w>
dan cers</w>
d ges</w>
cycl ope
back ache</w>
atu re
at os</w>
a wan</w>
Y S</w>
T ouri
St ore</w>
S lo
S even</w>
Hime ji</w>
Dra ma</w>
Ch ange</w>
B .</w>
9 6</w>
whe els</w>
val ley</w>
un reasonable</w>
tar ge
spee ch
ref rain</w>
post cards</w>
par en
os ex
nico video
ne se</w>
ga e</w>
face book
en.wikipedia. org/wiki/
cucu mbers</w>
communic ated</w>
ce able</w>
c key</w>
are .</w>
US B</w>
Typh oon</w>
Par ents</w>
L abor
Ka mi
Hei ju</w>
Gra de</w>
Gogyo hka</w>
G ene
Ar ts</w>
1 Q
&apos; you</w>
tu p</w>
train er</w>
th out</w>
sp ends</w>
sle eves</w>
skin ny</w>
sibl ings</w>
sear ch
sa usage</w>
rehear sal</w>
rea ches</w>
por ridge</w>
pat ent</w>
par cel</w>
on lin
mar u</w>
le ,</w>
lat te</w>
la be
jo gged</w>
influ ential</w>
ic ill
fruit ful</w>
ex ter
compla ins</w>
ca uti
bless ing</w>
atten dance</w>
alle vi
al ties</w>
ac t
Tit anic</w>
Ti an
Steph en</w>
R yu
K Y</w>
Ja va</w>
En trance</w>
B ou
6 2</w>
□ </w>
th west</w>
self- confidence</w>
paper backs</w>
p in</w>
overwhel ming</w>
of ten
nh k.or.jp</w>
nee dy</w>
min a</w>
man us
main land</w>
l an</w>
help less</w>
gy oza</w>
go d
ger man</w>
for -
fo li
exerci sed</w>
cover age</w>
comp ens
cat ches</w>
cand le</w>
bu rea
ble m</w>
as set</w>
an o
ad vo
Shi ga</w>
J in</w>
D om
AS A</w>
AL LY</w>
A omori</w>
23 8-
// en.wikipedia.org/wiki/
valu ed</w>
us tice</w>
understand .</w>
umbrel las</w>
ty ,</w>
susp ended</w>
su t
spee dy</w>
sp elled</w>
sou ls</w>
school ,</w>
pup il</w>
pe an
n es</w>
mon o
mo ck</w>
k oto</w>
ji ang</w>
ima ge
heal ed</w>
grap hi
gi g</w>
ge sture</w>
e. g.</w>
decl are</w>
de ss</w>
ca bin</w>
bye -bye</w>
ambi tious</w>
a ki
Ter min
Sel f-
Satur days</w>
S TE
O ver</w>
Hen ry</w>
A hh</w>
&apos; an</w>
tt on</w>
ta k
str ings</w>
pu bs</w>
prof itable</w>
pro vo
poor er</w>
on o</w>
master piece</w>
impul se</w>
h jong</w>
fa int</w>
expl or
ea fter</w>
distin ct</w>
con sole</w>
bul l
all y-
Th ink</w>
T ran
Stu dies</w>
Some one</w>
P ur
OR E</w>
O den</w>
No. 2</w>
Mad rid</w>
M J</w>
Iw ate</w>
Chr is</w>
Br own</w>
30 -
20 30</w>
.co. uk</w>
- the</w>
who le
web- site</w>
u i
tor n</w>
terri fic</w>
ta ste
sta mp</w>
st ag
recover ing</w>
psycho logist</w>
oppos ing</w>
no ises</w>
mu s</w>
k ara</w>
inst al
he els</w>
fo g</w>
exten sion</w>
enterpri se</w>
coun ts</w>
cou d</w>
co gni
che at</w>
air- conditioner</w>
St at
Sa fe
R P
Pr on
I ran</w>
Gi ants</w>
F u</w>
F alls</w>
Ex cel</w>
Arch ite
5 2
yester day,</w>
suff er
rep or
post graduate</w>
pe el</w>
ner ship</w>
mel ancho
ke i
ir u</w>
inten sity</w>
indepen dently</w>
compen sation</w>
be th</w>
ab sur
W ood</w>
T ony</w>
Pir ates</w>
M t.</w>
I ON
Foun dation</w>
D ri
v ar
thri lled</w>
short en</w>
road .</w>
rand om
para dise</w>
orang es</w>
no ticing</w>
me tab
inst in
goog led</w>
ge ant</w>
f ers</w>
er up
en ties</w>
dete cted</w>
der ly</w>
continu ally</w>
consu med</w>
col dest</w>
cit y.</w>
ci ate</w>
ci </w>
cat er
Se curity</w>
S ri</w>
R yu</w>
P eri
N abe</w>
Me eting</w>
M M
Ex press</w>
C au
- -
tu s</w>
tu m</w>
sure .</w>
stra tive</w>
sc al
s r
respe ctive</w>
re fund</w>
pr ou
phra sal</w>
per sever
pd f
ma stered</w>
lingui stic</w>
la yout</w>
interest ingly</w>
gi ous</w>
g rea
g ital</w>
express way</w>
delight ful</w>
be .</w>
aff i
Ri k
Re ally</w>
Ma x</w>
Hi ga
Com ing</w>
Chri st</w>
20 ,000</w>
whi sky</w>
whi skey</w>
travel er</w>
te ed</w>
strang e.</w>
stat ues</w>
soa king</w>
sen sor</w>
sac red</w>
s can</w>
ri cher</w>
recru it</w>
re menber</w>
prot est</w>
occur ring</w>
na ive</w>
musi c.</w>
long- distance</w>
la st
j er
ici ent</w>
hypo thesis</w>
home sick</w>
gn e</w>
floo ded</w>
ex otic</w>
evalu ated</w>
e ter</w>
disp osal</w>
cu t
concentr ating</w>
bu cket</w>
book stores</w>
X P</w>
P op</w>
M ol
M I
Lit erature</w>
Dy nasty</w>
Corpor ation</w>
AT M</w>
wi ped</w>
w inter
villa ges</w>
v ani
ud y</w>
threat ened</w>
that ,</w>
thank fully</w>
temp tation</w>
te st.</w>
sur u</w>
snow man</w>
scu ba</w>
r .com</w>
nicovideo .jp</w>
mic ros
mb a</w>
langu ag
itali an</w>
info /
her e:</w>
fe ast</w>
f itting</w>
e quality</w>
dia betes</w>
develop s</w>
contin ent</w>
cir cles</w>
Z i
The ory</w>
Spe cial</w>
K hos
JL PT</w>
I .</w>
F U
Conver sation</w>
C ross</w>
- in</w>
y elling</w>
wor ding</w>
wid th</w>
wed nesday</w>
wea k
uni v</w>
team work</w>
son o</w>
se y</w>
s log
rea dily</w>
pl ed</w>
phenomen a</w>
my th</w>
mo bi
may or</w>
lo gin</w>
kar u</w>
in spiring</w>
in habit
hu m</w>
gu id
fun .</w>
f ty</w>
environ mentally</w>
en vir
demon stration</w>
circu lation</w>
ab a</w>
Trans lation</w>
Su zuki</w>
R un
R an
Pic ture</w>
Matsu moto</w>
M ore
Je ju</w>
Hai ti</w>
D an</w>
w oken</w>
vi ties</w>
v enture</w>
tire d.</w>
tic on</w>
tat ami</w>
tar gets</w>
sun e</w>
subordin ate</w>
sp ices</w>
six teen</w>
pri mar
pack ages</w>
p ine
oun ted</w>
ou ter</w>
o ya</w>
n us
l oun
ja ms</w>
initi ative</w>
in et</w>
empha si
der .</w>
den i
ca sting</w>
ba i</w>
arri ves</w>
X- ray</w>
O &apos;
No thing</w>
K ara
Hong kong</w>
Gre en
B as
wi sh
w ages</w>
vil le</w>
un willing</w>
trans form</w>
toler ance</w>
thor ough</w>
t les</w>
sub -
some things</w>
so o</w>
re sent
pre sti
pe ers</w>
mon etary</w>
heart -
formul a</w>
fe ared</w>
drun ken</w>
W ars</w>
T op</w>
Prin cess</w>
On ce</w>
Ibar aki</w>
H atsu
Fin ance</w>
2 ,000</w>
. 3</w>
- T
whi ch
war es</w>
tu mb
tor ture</w>
thin ner</w>
su b</w>
sleep iness</w>
sh are
ri des</w>
represent ed</w>
re tain</w>
oo ls</w>
ll able</w>
l iness</w>
inno v
im er</w>
icill in</w>
i o</w>
fragi le</w>
f v
e i</w>
dolph in</w>
day s,</w>
con ditional</w>
compe tit
can ada</w>
bo dy
ar oun
al s.</w>
a wards</w>
XX XX
V in
Swi ss</w>
Sk y
M ars</w>
Lang-8 .</w>
C V</w>
C R</w>
Ad am</w>
zz ling</w>
twee ts</w>
ti se</w>
syllab les</w>
subur b</w>
senti mental</w>
secon d
qu itting</w>
pharma ceu
pe st</w>
parti al</w>
on going</w>
o dy</w>
n ag
my self
mis understandings</w>
li b
k age</w>
hour s.</w>
every day.</w>
entr y.</w>
dra in</w>
all y
W I
The ir</w>
M ori</w>
Japan ease</w>
A A</w>
18 0</w>
- S
〜 </w>
wai i</w>
u me
requ esting</w>
prom p
possi ble.</w>
nic ely</w>
le um</w>
king dom</w>
job- hunting</w>
hori zon</w>
hi ko</w>
gree ted</w>
go .</w>
fac e-
diff ers</w>
col lar</w>
appropri ately</w>
Vi enna</w>
Mc Donalds</w>
M ar</w>
Lan ka</w>
Labor atory</w>
K oshi
FR IEN
Dai ly</w>
AR S</w>
238- 240</w>
- K
&apos; or</w>
tooth ache</w>
th ursday</w>
ten th</w>
some thing
sha ve</w>
persu a
pedestri ans</w>
p unk</w>
occu pa
negoti ate</w>
mi ll</w>
m ap
li cation</w>
la ying</w>
imm ature</w>
hu a</w>
gym nas
g arian</w>
e sper
do g
disgu sted</w>
cont acts</w>
carri ers</w>
admit tedly</w>
accompli shment</w>
ac knowled
VO A</w>
T ER
Sil ver</w>
L earn</w>
K AN
Japan se</w>
Hay abu
H ana</w>
G ot</w>
Fanta sy</w>
Ch an</w>
C O</w>
9 8
199 4</w>
wrong .</w>
su le</w>
st ent</w>
se aside</w>
sai d.</w>
rescu ed</w>
promin ent</w>
pp l</w>
nus .edu
na me.</w>
mom ent
kit ty</w>
k ills</w>
jud ges</w>
it ory</w>
imm une</w>
iPhone 4</w>
ge ek</w>
ga me.</w>
exhau sting</w>
en ough
discri min
cou pon</w>
con dom
coa ster</w>
childr en.</w>
che ese
adver se</w>
W ha
UT F
Shi mo
P lu
Ke ep</w>
H ome
H as</w>
EIK EN</w>
Con tin
Camer on</w>
. in
- A
zo diac</w>
y l
wr apping</w>
war med</w>
stre tching</w>
sil k</w>
se ,</w>
s. I</w>
ra u</w>
ra ge</w>
ra cial</w>
r fi
over sleep</w>
new comer</w>
mi e</w>
ki stan</w>
ju ggling</w>
f ly
ex changes</w>
elabor ate</w>
cell phones</w>
ar row</w>
and ..</w>
U p
M et
I sl
HD D</w>
G A</w>
B T</w>
Ang els</w>
198 5</w>
12 .
- like</w>
u ous</w>
ti l
spon sor
short ened</w>
ri ce-
ment ality</w>
m andarin</w>
lan ded</w>
irrit ating</w>
in ity</w>
exclu sive</w>
cor ri
consul ted</w>
col on</w>
car ries</w>
caf fe
basi l</w>
awkwar d.</w>
a ment</w>
Y U</w>
To chi
Sy mp
Sam sung</w>
P on
P AR
O re
Mari a</w>
H ard</w>
DP J</w>
Christi ans</w>
A so</w>
200 0
0 g</w>
volunte ering</w>
vi es</w>
tom b</w>
t su</w>
sp ouse</w>
sp ice</w>
some ting</w>
s ch</w>
respect ful</w>
per ception</w>
mang as</w>
ma sc
ma cker
liter acy</w>
k king</w>
investi g
ink aku
in an</w>
hin ts</w>
fr an
flexi bility</w>
estee m</w>
er ent</w>
demo cratic</w>
dead ly</w>
co con
che ep</w>
ch ased</w>
casin o</w>
be es</w>
b y-
attra cting</w>
alu m
Wor king</w>
S hel
Mo z
Mo dern</w>
Lab or</w>
Hayabu sa</w>
G B</w>
F lu
Ex ample</w>
Cath olic</w>
Buil ding</w>
A tom
A sians</w>
- cooled</w>
z ai</w>
wea kne
vi g
there ,</w>
th u
swe aty</w>
shar es</w>
sal sa</w>
s man</w>
ro id</w>
ra ku
part 2</w>
p als</w>
ot to</w>
now days</w>
noun .</w>
ma ge</w>
lan tern</w>
jud gement</w>
inter sting</w>
insan e</w>
ha un
gin al</w>
don ald</w>
d ots</w>
d ful</w>
compe ting</w>
ch opped</w>
c us
be ats</w>
Re actors</w>
Lin ux</w>
L unch</w>
Ju stin</w>
J ason</w>
F ore
Dar k</w>
9 5
y n
y /
ten ed</w>
spr ay</w>
ri sky</w>
proble m.</w>
pol es</w>
p ots</w>
out fits</w>
ne tic</w>
na vy</w>
medi tation</w>
hydrange a</w>
hos ted</w>
e k
compos er</w>
chang eable</w>
black outs</w>
ac knowledge</w>
W est
Su pp
S ay</w>
Pri son</w>
Nic o</w>
Mac Book</w>
E th
Camer a</w>
Af gh
you ..</w>
war n</w>
wa kes</w>
w ool</w>
skill s.</w>
sen sation</w>
pur suit</w>
poor ly</w>
pay ed</w>
par son</w>
manus cript</w>
incl ined</w>
gr oss</w>
fro gs</w>
forbi dden</w>
dia mond</w>
def ence</w>
cr ows</w>
con sent</w>
com memor
clo ck
centi meters</w>
ca su
bo ats</w>
ari a</w>
apo inted</w>
after -
V E
Tsu ki
P R</w>
N AR
Mon ey</w>
Matsu ri</w>
I zu</w>
I denti
Gu i
Europe ans</w>
Coun cil</w>
Con stitution</w>
Chin a.</w>
B R
0 8
z he
worl ds</w>
ver ted</w>
transi tion</w>
t eller</w>
spon ge</w>
sep tember</w>
sc ru
re moving</w>
pursu ing</w>
perspe ctives</w>
mess enger</w>
me i
index .php</w>
hor n</w>
fu ture
fli ck
fer mented</w>
fai thful</w>
extra ct</w>
empha sized</w>
ea th</w>
e co</w>
doub ted</w>
cla uses</w>
cl ed</w>
bra ke</w>
beca use
at er
a while</w>
Wed ding</w>
Th ose</w>
P ost</w>
Man chester</w>
Le tter</w>
L AN</w>
Khos rau</w>
D uring</w>
Bea utiful</w>
A X</w>
www. nicovideo.jp</w>
wrest ler</w>
wee ds</w>
ur s</w>
tu tor
th m</w>
streng th
sti r</w>
som thing</w>
re vol
quarre led</w>
primar ily</w>
par a</w>
nation alities</w>
ment ation</w>
m any
life styles</w>
lef t-
imagin ing</w>
foo d
femin ine</w>
er als</w>
down stairs</w>
cop ying</w>
conta minated</w>
cha os</w>
bud dy</w>
b les</w>
are :</w>
adju sted</w>
W R
US E</w>
Ri der</w>
Imp ro
G ood
Eur op
En lish</w>
D own</w>
C op
Ber lin</w>
Amer ica
Al ways</w>
AS HI</w>
70 s</w>
3 .</w>
197 9</w>
worth less</w>
wil d
wheel chair</w>
ur ant</w>
tra cks</w>
te ens</w>
t arily</w>
supersti tion</w>
student s.</w>
spectac ular</w>
shr inking</w>
se da</w>
scre ening</w>
rec ite</w>
pu b
perform er</w>
main tained</w>
knowled ge
k or
gi ble</w>
fu sion</w>
far ms</w>
f oster</w>
edi ting</w>
bur d
beha ved</w>
b rac
a min
Tochi gi</w>
Kar ate</w>
High -
H D</w>
H APP
G ei
F F</w>
B OR
10 km</w>
wikipe dia</w>
trans fered</w>
thri lling</w>
stre sses</w>
squ irre
sle eve</w>
simpli fied</w>
renew ed</w>
proof read</w>
posse ssive</w>
pe ppers</w>
paralle l</w>
of course</w>
min t</w>
ma ths</w>
li fts</w>
glo be</w>
gene tically</w>
frea k</w>
edi ted</w>
down .</w>
dea f</w>
con do</w>
cater pill
bro iled</w>
bre ed</w>
bod y.</w>
bo k</w>
bi bli
belon gings</w>
b oni
are job</w>
ap h
ani mes</w>
To o</w>
T rain</w>
Shakespe are</w>
S mart</w>
R ab
Pri v
Par agu
P ast</w>
Nipp on</w>
Li on</w>
G or
C ard</w>
&apos; but</w>
tt ered</w>
tra ce</w>
ti ble</w>
stu pi
star bucks</w>
sle eved</w>
s ary</w>
rain ning</w>
pa use</w>
oppot unity</w>
mon ks</w>
lea king</w>
kk k</w>
ho ckey</w>
hesit ating</w>
fortun e-
f rac
ear rings</w>
dis likes</w>
dess erts</w>
con not
br and-
basi cs</w>
ban e</w>
asse mbly</w>
aaaa aaaa
T at
Sou theast</w>
Sh in</w>
Psycho logy</w>
N inja</w>
My self</w>
Ma ca
K ir
J im
Han shin</w>
Di et</w>
AT A</w>
young sters</w>
tw enties</w>
tun nel</w>
sp ell
sales man</w>
restr ant</w>
repa iring</w>
pres sures</w>
ordin arily</w>
opp er</w>
nuclear -
mar sh
ki ssed</w>
ke ting</w>
hu gging</w>
govern or</w>
gg le</w>
fra me
fin aly</w>
far ther</w>
enterpri ses</w>
emo ticon</w>
draw er</w>
dra wings</w>
dr a</w>
deman ded</w>
co des</w>
car .</w>
barri ers</w>
Tsu yu</w>
S hop</w>
S A
P at
IG HT</w>
An drew</w>
A wa
8 6</w>
well- being</w>
we ed</w>
wa ste
tru sted</w>
temp o</w>
sit com</w>
side .</w>
rac coon</w>
q ing</w>
pro verbs</w>
o ily</w>
neighb our
mur m
mi st</w>
ma .</w>
inci </w>
in ess
ham ster</w>
grand children</w>
ge stu
facebook .com</w>
ev ent
ea u</w>
distur bed</w>
deva stated</w>
cockro aches</w>
cock tail</w>
au to</w>
a do</w>
Ven ice</w>
US HI</w>
Tot oro</w>
Pr of</w>
N icky</w>
E mma</w>
D D</w>
Cur ry</w>
C are</w>
200 7
ya kiniku</w>
witne ssed</w>
volun tarily</w>
un avoid
ti les</w>
su ka</w>
stamp s</w>
st ab
rep lies</w>
prot ag
po ckets</w>
pen s</w>
ou ting</w>
oooo o</w>
mm mmm</w>
lo os
ir onic</w>
ign oring</w>
guil t</w>
for cing</w>
ff i
eeee eeee
disc lose</w>
di p</w>
di ge
counsel ing</w>
com unicate</w>
ck in</w>
c row</w>
blow s</w>
bi ble</w>
be ard</w>
appear ances</w>
ad dresses</w>
S aku
S .
P .</w>
Okin awan</w>
Mich el</w>
J .</w>
H I
G yo
F le
Egyp tian</w>
E in
B un
Ac cident</w>
. be</w>
, 2009</w>
un doub
ty pe
the si
t ent
subsi di
st are</w>
shog i</w>
sh ak
said :</w>
ro bb
r ats</w>
postp one</w>
pan ic
ot on
n arra
min ima
medi cation</w>
mat ched</w>
it is</w>
hy per
hard ships</w>
gentle men</w>
gar age</w>
fla sh
fin ger
ey el
emb ara
ed ..</w>
dipl om
dem o</w>
dar ts</w>
coo l
condom ini
cal culation</w>
bu ys</w>
bu ri</w>
assi st
americ a</w>
a shes</w>
Sim on</w>
Sh owa</w>
S -
Pro vince</w>
I da
Every thing</w>
D ome</w>
Chan nel</w>
Cent re</w>
- type</w>
vir tually</w>
up side</w>
sne akers</w>
smar ter</w>
sev ent
sa x
sa ti
ri ka</w>
resi stant</w>
re mo
pos ters</w>
pl ur
pati ently</w>
osi tion</w>
op ti
metaph or</w>
m our
m ,</w>
lic op
langu age
int -
in fla
i. e.</w>
head quarters</w>
he licop
envel ope</w>
enti a</w>
dom ain</w>
de ath
b ally</w>
article s/
arrang ing</w>
a me</w>
\ </w>
Y ang</w>
Re view</w>
Nep al</w>
Li ver
K ha
H AN
F ar
E .
An dre
A re
4 /
＼ </w>
wri st</w>
tr yed</w>
t opped</w>
stro ll</w>
stor y.</w>
sti cking</w>
ss els</w>
ren der</w>
persu aded</w>
off .</w>
ob serving</w>
nus.edu .sg/
man -
j yo</w>
inter rupt</w>
in e.</w>
illustr ate</w>
he i</w>
h ap
gi -
ga -
g ates</w>
friend ships</w>
follow ing:</w>
ero om</w>
d ded</w>
comple tion</w>
bl ond</w>
back pack</w>
b -
ang ar
ame l</w>
ad ds</w>
a esthe
Z hang</w>
W ol
V il
UR A</w>
Sen ior</w>
Sara h</w>
P ay
OU T</w>
L ong
Japanese ,</w>
Gun ma</w>
AV AT
win es</w>
un ciation</w>
tr ous
to eic</w>
to day..</w>
swe ated</w>
sun burn</w>
st rained</w>
ser geant</w>
sc ool</w>
rese mbles</w>
reha bili
refu ge
rec ital</w>
reason ably</w>
re build</w>
prescri ption</w>
pessimi stic</w>
organiz er</w>
or dering</w>
off ended</w>
n. d</w>
list ing</w>
la h</w>
l ls</w>
ice- cream</w>
ff le</w>
exhi bited</w>
envir om
ell ow
co ats</w>
boni to</w>
ac up
a holic</w>
Ro yal</w>
Res ort</w>
RE E</w>
P lay</w>
Fi ji</w>
D a</w>
A E
,000 ,000</w>
＝ </w>
vari es</w>
v ot
three- year-old</w>
thought ful</w>
there for</w>
sole ly</w>
side walk</w>
pro cra
pi ll</w>
p p</w>
oun ding</w>
note books</w>
mi schi
m ics</w>
guid el
en ligh
du mb</w>
disa ve</w>
di m</w>
de sks</w>
crow ds</w>
back .</w>
aff lu
aer ob
Wak ayama</w>
Me disave</w>
Ma i</w>
Lun ar</w>
Hi karu</w>
Hawai ian</w>
G OOD</w>
G FR</w>
Chin at
Ch i</w>
C ar</w>
C ON
Be eth
B ai
5 ,000</w>
1Q 84</w>
yak itori</w>
virtu e</w>
twi sted</w>
sti cal</w>
se ated</w>
s bane</w>
re servations</w>
random ly</w>
quisi tion</w>
pe aple</w>
p ong</w>
o ck</w>
maj ors</w>
ju do</w>
in direct</w>
hope less</w>
distin ctive</w>
correspon ding</w>
correspon dence</w>
cap s</w>
bump ed</w>
bit ter
be st.</w>
awar ded</w>
authenti c</w>
ar cade</w>
aly sis</w>
air craft</w>
To y</w>
Th ing</w>
T .</w>
Shi koku</w>
S UN
N ow
Mid- Autumn</w>
M AR
Li ving</w>
L &apos;
Jo y</w>
E ric</w>
C air
youtu .be</w>
ye on</w>
writ ing.</w>
un deni
tis sues</w>
ti de</w>
th x</w>
r enting</w>
pun ch</w>
plan ting</w>
occurr ence</w>
new er</w>
me l</w>
lo cker</w>
kid n
infin ite</w>
iP ad
fra ud</w>
f om
exhibi tions</w>
especi aly</w>
cr owed</w>
compati ble</w>
chemic als</w>
alter nate</w>
Sal t</w>
Safe ty</w>
S ite</w>
Peri od</w>
Nan jing</w>
Mag ic</w>
K E
Ishi kawa</w>
Hel lo
F our</w>
Cana dians</w>
Be er</w>
Ar my</w>
6 7</w>
3. 11</w>
2. 5</w>
19 70</w>
&apos; n</w>
z aki</w>
weakne sses</w>
v s.</w>
surf ed</w>
sup pos
st ling</w>
snow fall</w>
se ..</w>
reluct antly</w>
perform ers</w>
out look</w>
oni giri</w>
necessi ties</w>
manufac ture</w>
in fr
impli cations</w>
i v
her bs</w>
goo. gl</w>
er ..</w>
e els</w>
cr an
congratul ate</w>
compon ent</w>
cli cked</w>
cessi bility</w>
back up</w>
at -
app er</w>
adverti se</w>
acup un
a shi
W eather</w>
T our</w>
R in
P lant</w>
P .
O B
Miya jima</w>
Mi d
K S</w>
Eli za
Alter native</w>
A my</w>
9 7</w>
11 -
100 00</w>
&apos; It</w>
wrink les</w>
un limited</w>
un bear
ul ly</w>
tutor ing</w>
thr op
t &apos;
stuff y</w>
soooo oo</w>
snee zing</w>
skunk works</w>
sh orts</w>
ri a</w>
mi ssions</w>
mater nity</w>
less en</w>
k yu
in al</w>
gu y
ge ar</w>
ev ing</w>
envi ed</w>
ent -
e tte</w>
du ration</w>
domin ant</w>
demonstr ate</w>
day- off</w>
dar ling</w>
cru ise</w>
const rain
catastr oph
c .
below :</w>
b our</w>
b .
admini strative</w>
accoun tant</w>
UF O</w>
Mi ami</w>
L DP</w>
Ju lia</w>
Beeth oven</w>
5 3</w>
zhe imer</w>
y mp
wedd ings</w>
vari ation</w>
uk o</w>
ti zed</w>
r er
por tal
op he</w>
om o</w>
no ble</w>
ne c
mo tive</w>
lif ting</w>
ju ven
je ctions</w>
illu sion</w>
haha ..</w>
gen res</w>
fe at
fat ty</w>
ex cess</w>
dipl oma</w>
d un
confe ssed</w>
com o</w>
any more.</w>
Yu an</w>
Re si
Phot oshop</w>
Per son</w>
Mon ster</w>
Malay sian</w>
Maj or</w>
M ON
I E</w>
En gish</w>
C amp
B and</w>
Admini stration</w>
5 7
2 .html</w>
1 40</w>
.. ..
w er
un usually</w>
stud y.</w>
sp ra
se oul</w>
regi ster
recom end</w>
ph o
on s.</w>
man e</w>
lean ed</w>
le d
i zakaya</w>
hard working</w>
facilit ate</w>
ex emp
es es</w>
dium- cooled</w>
disa ster
decrea ses</w>
cor ding</w>
col oni
ci ally</w>
care er-
bir thr
au dition</w>
all ,</w>
alco hol
al as</w>
ac or
ZZ ZZ
YE AR</w>
Swi ft</w>
St op</w>
N ote
Mi k
M un
L ANG
G en</w>
Foot ball</w>
Experi ence</w>
Emp ire</w>
B road
Ara bia</w>
Age ing</w>
20 -
2 hours</w>
vir uses</w>
vi an</w>
v ous</w>
tre al</w>
t- shirt</w>
stre et
speci alists</w>
soy bean</w>
si ts</w>
shar k</w>
sett ings</w>
sc rap
ru mors</w>
rewar ding</w>
revolu tionary</w>
respe cts</w>
ra ises</w>
pol ar</w>
poison ing</w>
other s.</w>
mud dy</w>
mo ld</w>
m aps</w>
l eng
inti mate</w>
hi ke</w>
fear ful</w>
f o</w>
expl oring</w>
eli minated</w>
du bbed</w>
comb at</w>
co s</w>
co li</w>
co a</w>
cent ric</w>
ca s
book keeping</w>
ab by</w>
a sian</w>
a ha</w>
Un i</w>
Su gge
Pu t</w>
P atri
Mat t</w>
M ount</w>
M ing</w>
Li u</w>
K ri
Ida ho</w>
G host</w>
D ate</w>
Co de</w>
Atom ic</w>
www. amazon
ul t</w>
tr ap</w>
t ence</w>
pit cher</w>
os phere</w>
ok an</w>
mu g</w>
m n</w>
lot us</w>
j y
interest ing.</w>
har bor</w>
gri ef</w>
ef l</w>
drow sy</w>
de ed</w>
comprehen sive</w>
bi scu
base ment</w>
bas es</w>
ba cause</w>
aw n</w>
anci al</w>
abu sed</w>
Week end</w>
Mic key</w>
K aw
K atsu
JP Y</w>
De vil</w>
C ere
Ak ira</w>
AVAT AR</w>
199 3</w>
. net/
&apos; What</w>
y ar
v icious</w>
toni ght.</w>
ti ans</w>
t att
situ ation.</w>
second- hand</w>
sc oot
poli teness</w>
play next</w>
pic tu
pharmaceu tical</w>
pe di
one day</w>
na tionally</w>
med als</w>
jun gle</w>
is :</w>
h n</w>
gramm ars</w>
gg ers</w>
four teen</w>
flu ctu
fl ouri
fi ssion</w>
feat uring</w>
examin er</w>
ex er
di eting</w>
cru shed</w>
coun cil</w>
busi est</w>
bu yer</w>
bon ds</w>
blu es</w>
as th
ap ric
ab domin
Wil pert</w>
TE N
R ol
Pre mi
PO P</w>
O dai
Na oto</w>
M AN</w>
J ose
J o</w>
H achi
Fried land</w>
30 ,000</w>
www. facebook.com</w>
scand al</w>
ri ght
ri g
rec k
re store</w>
re lates</w>
re l</w>
re fined</w>
rac kers</w>
ra s
ques tioned</w>
par ty.</w>
oy ster</w>
ol ulu</w>
much ,</w>
list ens</w>
lea ved</w>
inv iting</w>
ha h</w>
fa de</w>
ex pose</w>
ev ey
drea dful</w>
correc t
app u
am ura</w>
Wa seda</w>
Th ird</w>
S af
Pow er
Poli cy</w>
PD F</w>
La ura</w>
L L
I e
E specially</w>
A z
&apos; on</w>
z uka</w>
wikipedia. org</w>
u a</w>
t ar</w>
st ard</w>
ske p
sc ape</w>
sa y,</w>
rel ying</w>
re i
r ally</w>
pi ssed</w>
op her</w>
nuclear .org/
neu tr
li hood</w>
inser ted</w>
impre ss</w>
il a</w>
i i</w>
hun ter</w>
h n
gene tic
frighten ing</w>
exce ed</w>
examin ees</w>
es :</w>
dyna sty</w>
descrip tions</w>
dam p</w>
da ily
d ented</w>
creep y</w>
co ck</w>
cli ps</w>
bri ghter</w>
assu mption</w>
a si
Ry an</w>
Res our
Pra gue</w>
P od
O scar</w>
N am</w>
N ASA</w>
M AN
Holi days</w>
ES E</w>
C ost
Al zheimer</w>
4 ,
2 E
y on
v est
uku lele</w>
t ow</w>
sty list</w>
sti mu
sing le-
rot ation</w>
ri dden</w>
reci eve</w>
progre ssing</w>
pleas antly</w>
over weight</w>
oper ates</w>
ol a</w>
ob iles</w>
moder ni
ma c
m ura</w>
lic it</w>
hot mail</w>
hom osex
ex- girlfriend</w>
ep le</w>
diver t</w>
distri cts</w>
disc re
diff ic
dang ered</w>
cli ff</w>
catastr ophe</w>
cast les</w>
car p
cap it
blo g-
YO UR</w>
S leep
Physi cs</w>
L t
H AR
Fin nish</w>
Fin ancial</w>
D ong</w>
Asa hi</w>
Asa da</w>
Alter natively</w>
A ga
22 th</w>
0 -
&apos; means</w>
xx xx
vari ed</w>
ut most</w>
undoub tedly</w>
teach er.</w>
suff ers</w>
stop ed</w>
sti ckers</w>
slog an</w>
si mulation</w>
schol ar</w>
repeti tion</w>
re t
progra ming</w>
police men</w>
par as
offic e.</w>
men us</w>
lett uce</w>
j an
in efficient</w>
hang ed</w>
gestu res</w>
est a</w>
easy going</w>
down turn</w>
de scen
commit ment</w>
col dness</w>
car ni
c tors</w>
bul le
boo t</w>
b lun
ar do</w>
abdomin al</w>
a ud
T D
Sou thern</w>
R ach
M asa</w>
Liver pool</w>
K aga
Hi ll</w>
E mily</w>
Di a
D ead</w>
Cour se</w>
Chinese -
C le
C IT
BI G</w>
8 8
3 ,000</w>
2 years</w>
0 4
wor ms</w>
v ors</w>
un conscious</w>
ul tra
tr um</w>
tr ed</w>
ti st</w>
there by</w>
st en</w>
run n
restri ctions</w>
petro l</w>
manufactur er</w>
lou der</w>
ky oto</w>
k un
j yuku</w>
inf om
every one.</w>
er ences</w>
en cyclope
el .</w>
dem entia</w>
d ors</w>
cor r
conta mination</w>
ch ari
appro ve</w>
a tic</w>
Tra de</w>
St and
Si chuan</w>
Paragu ay</w>
P it
P V</w>
Mom o</w>
M ess
K now
Jen ni
Hon olulu</w>
Her oes</w>
Ch ang</w>
Bri sbane</w>
AA AA
A yu
50 ,000</w>
15 00</w>
&apos; my</w>
yahoo .co.jp</w>
wrest ling</w>
whi le.</w>
wa sher</w>
vio lation</w>
ur ance</w>
tre ss</w>
tran scri
tox ic</w>
te dious</w>
swe pt</w>
sk ater</w>
sa usages</w>
ri tual</w>
repeti tive</w>
re mark</w>
r ink</w>
petro leum</w>
ome let</w>
merchan dise</w>
lif ted</w>
lif el
k o-
ju icy</w>
in ning</w>
in doors</w>
harv ested</w>
ha -
gra ves</w>
fre e-
fa mouse</w>
e mailed</w>
du mp</w>
deci sive</w>
dar ker</w>
cros s
cre ator</w>
conne cts</w>
commodi ties</w>
bru shed</w>
boo king</w>
aw fully</w>
any way,</w>
Sib eria</w>
Ro om</w>
Jen ny</w>
Fr en
AM E</w>
12 -
000 yen</w>
//www. gen
.co. uk/
‐ </w>
t v
sta mina</w>
sp li
sleep .</w>
rop er</w>
oz or
mi su
mat su</w>
mani pul
la yers</w>
l ining</w>
harmon ious</w>
gr u
ear ne
dra g</w>
disappo int</w>
dir t</w>
compli ments</w>
comp elled</w>
can n
birthr ate</w>
billi ards</w>
bat ter</w>
b ore</w>
autom obiles</w>
Tra ditional</w>
TH AT</w>
T W
S to
Ro ger</w>
Mon treal</w>
I K</w>
F Y
20 100
198 4</w>
0 6
vi vi
vagu ely</w>
tu tors</w>
ti a</w>
summ er.</w>
sna kes</w>
s &apos;
ri bb
peti tion</w>
mer ry</w>
ing er</w>
gn ation</w>
ep er</w>
egg plants</w>
dr ying</w>
di mini
dem on</w>
deal er</w>
dau g
consider ations</w>
confi denti
condomini um</w>
bo a
bit es</w>
bi g
bal d</w>
architec tural</w>
al cho
Yos hin
Y UK
V inci</w>
To T</w>
SH O
S om
S ad
Pi x
Ok ay</w>
I Z
Hei an</w>
G la
F ace</w>
Eliza beth</w>
E ver
Bur ger</w>
B y
B ar</w>
A kita</w>
A 4</w>
3 D
the a
sun glasses</w>
su kiyaki</w>
ri ght-
ra i</w>
r oo
provi der</w>
per m</w>
nee dle</w>
mar ket
ma hjong</w>
m ar</w>
lat e.</w>
instal lation</w>
graphi cal</w>
en dangered</w>
dru mmer</w>
cros s-
coun tdown</w>
co di
chair man</w>
ch t</w>
bu ds</w>
beauti ful.</w>
atten dants</w>
analy zed</w>
an ch
after shock</w>
Z en</w>
Ver y-
Uni versal</w>
Un fortunately</w>
R yo</w>
Hang zhou</w>
H ur
H o</w>
H .</w>
Chinat own</w>
Ani mation</w>
vi gne</w>
vi br
un certain
u ri</w>
thre aten</w>
thou gt</w>
sympath ize</w>
sur geon</w>
ssi vely</w>
ser vers</w>
s cep
ro d</w>
rehabili tation</w>
predic tion</w>
on de</w>
month s.</w>
minima l</w>
lea ked</w>
l &apos;
k it</w>
impos ed</w>
i sts</w>
i k
handic apped</w>
good night</w>
ga ins</w>
execu ted</w>
ep i
draw s</w>
dete ction</w>
de pres
cu be</w>
ce ly</w>
car d
bur gh</w>
an abe</w>
S EN
Rik ako</w>
Q ing
Organi zation</w>
Medic ine</w>
M es
HA VE</w>
F 1</w>
CE T
9 50
. asp</w>
to days</w>
tion ality</w>
sun burned</w>
sa iling</w>
represent ing</w>
re construction</w>
r g
ques tion.</w>
po eple</w>
ple se</w>
morn ing,</w>
ma c</w>
ki es</w>
inten tions</w>
in ers</w>
in au
fai th
entr y-
di stress</w>
comp act</w>
calcul ated</w>
bu d</w>
bu bbles</w>
be for</w>
asth ma</w>
al one.</w>
air ports</w>
a a</w>
Wi thout</w>
To fu</w>
Sugge stion</w>
Stati stics</w>
P RO
O asis</w>
Jenni fer</w>
In cheon</w>
I chi
H u</w>
Di strict</w>
AG E</w>
2- 3</w>
work out</w>
w n
vani shed</w>
them ,</w>
subur bs</w>
speci fied</w>
sli pper
ro s</w>
protag onist</w>
me et
listen ers</w>
it -
illu mination</w>
eyebr ows</w>
expres sion
emb assy</w>
disclos ure</w>
dis c</w>
din ner.</w>
diffr ent</w>
d ral</w>
crac ked</w>
con stitu
comb ining</w>
collabor ation</w>
cla m</w>
cc ino</w>
car amel</w>
bel ls</w>
beca se</w>
at o
am .</w>
al ,</w>
ag on</w>
acci dent
Web site</w>
T ai</w>
Su mm
Shop ping</w>
Poli ce</w>
Pho enix</w>
Phi los
Mom oko</w>
M I</w>
J er
&apos; was</w>
year ,</w>
vacc ination</w>
up dating</w>
un prece
tou ches</w>
th a
sc ra
sa m
rob bed</w>
respec table</w>
renew al</w>
rea dings</w>
pun c
prou dly</w>
pri orities</w>
pla cement</w>
pine apple</w>
ospe l</w>
or o
nu t
n ano</w>
mo h
mi le
li tter</w>
j or
hom eroom</w>
hi ght</w>
hi er
don uts</w>
consul tation</w>
con ception</w>
competit ors</w>
co her
co ast
an ded</w>
ama zon</w>
ag ne</w>
acu te</w>
Yan ke
YAK I</w>
V an</w>
Taka hashi</w>
T ro
St even</w>
Nat ural</w>
Mi ki</w>
Mar u
Ma thema
Li ly</w>
LO ST</w>
L CD</w>
Hak ata</w>
F err
Engl sh</w>
Col a</w>
Australi ans</w>
A sh
- year</w>
y l</w>
trans formed</w>
the dral</w>
stereot ype</w>
sla ve</w>
si ung</w>
shri mps</w>
ru shing</w>
pres so</w>
pan els</w>
ob jectives</w>
nuclear.org/ info/
nor theast</w>
ne atly</w>
muff ler</w>
mean ing.</w>
lan es</w>
kin d
it ment</w>
inva sion</w>
infer i
horiz on
for war
fir st.</w>
fami ly-
fa it</w>
expan ded</w>
e Bay</w>
der al</w>
depar ted</w>
cos ted</w>
conver ted</w>
conve y
aga shi</w>
_ _
Yama guchi</w>
Symp hony</w>
Simp le</w>
R ou
Oh ..</w>
M ind</w>
K I
Is la
H il
G an
F ool</w>
Ch eng
C oke</w>
C ase</w>
5 4
&apos; so</w>
yi eld</w>
vac ant</w>
thou se</w>
summ it</w>
stat e-
sh allow</w>
schol ars</w>
sal esper
sa tions</w>
ra se</w>
pa mp
oy sters</w>
no dded</w>
neighb our</w>
mun ici
lunch time</w>
lon g.</w>
ingu </w>
exp ired</w>
en cies</w>
di ent</w>
defini tions</w>
ch al
cauti ous</w>
caffe ine</w>
be aring</w>
ballo ons</w>
ar di
acc used</w>
Un der
Tom o-chan</w>
Tai wan
Stan ford</w>
Langu ages</w>
Jour ney</w>
E ss
Beau ty</w>
199 2</w>
100 yen</w>
u ally</w>
syn drome</w>
stre tched</w>
si es</w>
s r</w>
reac tor
pre f</w>
practi sing</w>
p ou
ow ning</w>
mel ons</w>
la kes</w>
kilome ter</w>
ink ansen</w>
explo de</w>
exper tise</w>
expen si
e- books</w>
dru g
disc ounted</w>
differ enti
did &apos;nt</w>
de served</w>
cent ered</w>
c ot
ba za
ange lion</w>
al e
a waiting</w>
Y un
W AS</w>
Take shi</w>
SW CR</w>
S R
Pro gram
Pi zz
Nik ko</w>
Koshi en</w>
I m
HAPP Y</w>
H ob
G ossip</w>
C lo
C L
Bru ce</w>
6 00
3 .html</w>
//www. nature
. ly</w>
vit ality</w>
un ite</w>
stereoty pes</w>
sor ry.</w>
sh ells</w>
pre valent</w>
pre su
past .</w>
ne ss.</w>
mo lec
mm on</w>
mm ers</w>
m one</w>
life ,</w>
j oun
im ing</w>
humi li
hard- working</w>
ha ts</w>
fol k
ess entially</w>
coun ties</w>
copy right</w>
comple x
b f</w>
aw ay.</w>
attemp ted</w>
am atsu
abor tion</w>
Wel come</w>
W AN
Uta da</w>
Tr ue</w>
Sa me</w>
S ty
S mall</w>
Pr o</w>
Moz art</w>
Ma de</w>
L oc
H S</w>
G ri
E T
Chemi stry</w>
An n</w>
. or</w>
ww ww
w ood
val entine</w>
to day
sta ke</w>
sen sible</w>
respon sive</w>
pengu ins</w>
par tici
out dated</w>
nin th</w>
mor ing</w>
loun ge</w>
individu ally</w>
illu minated</w>
ignor ant</w>
ha tred</w>
fir ends</w>
enz hen</w>
e spe
dialo g</w>
could nt</w>
con ju
br on
bla de</w>
bit ch</w>
bi z</w>
bi ased</w>
bar k</w>
aw oke</w>
att a</w>
article /
ar med</w>
affec ting</w>
adole sc
accor dance</w>
absur d</w>
U U
Soft bank</w>
O f
N ob
L ar
In no
In dians</w>
Fi g
A th
7 8</w>
2 B
100 th</w>
//www. i
-F i</w>
wri te
wit ness</w>
wan dered</w>
trea sures</w>
tan ned</w>
super -
sti cker</w>
she d.</w>
semin ars</w>
sax ophone</w>
rewar ded</w>
pro vin
presti gious</w>
pre view</w>
pl un
opp ings</w>
on ships</w>
mor nig</w>
lun gs</w>
imp ose</w>
gui des</w>
gi g
friend ,</w>
execu tives</w>
exam .</w>
et ro
do z
difficul t.</w>
cra bs</w>
cow ard</w>
clo the
che w</w>
cap sule</w>
ca tive</w>
bu dd
arrang ements</w>
an alog</w>
alle st</w>
STE P</w>
Pro b
G as
E qu
D anish</w>
D S
CP A</w>
C ab
Adv anced</w>
9 3</w>
4 000</w>
30 s</w>
198 9</w>
xx 0g</w>
x x</w>
wou ld
wei ghed</w>
w are
utili zed</w>
trous ers</w>
ti gers</w>
t z</w>
supple ments</w>
subscri be</w>
stud yed</w>
st rac
ri sen</w>
re fresh
pe dal</w>
pass ages</w>
parti ally</w>
pac i
ol ymp
na sium</w>
mini ature</w>
me tro</w>
marsh m
inst alling</w>
form ers</w>
f le</w>
evacu ated</w>
di versi
deliver ing</w>
coun ters</w>
con vic
cation s/
car bon
bl in</w>
av atar</w>
atom osphere</w>
atmos pher
anti bio
X O</w>
Wor k
W r
U E</w>
Sp a</w>
R evolution</w>
L ight</w>
K AT
Jor dan</w>
E 6</w>
Chr ome</w>
BOR N</w>
AW A</w>
6 4
21 th</w>
¨ </w>
wa -
w rec
vio let</w>
ver ages</w>
unavoid able</w>
the ir
teach ed</w>
se mi
pri zes</w>
pop s</w>
ph one.</w>
persever ance</w>
pay day</w>
os h
omi zu</w>
mo bility</w>
lap tops</w>
k yo</w>
j ar</w>
in er</w>
ignor ance</w>
holi day.</w>
h r</w>
g low</w>
fisher man</w>
fi res</w>
ex por
end urance</w>
en tive</w>
don ations</w>
de part</w>
de fic
cor ners</w>
confec tionery</w>
but ,</w>
bul ly</w>
bri ck</w>
betra yed</w>
be y</w>
al titude</w>
aff ir
ad es</w>
Tou ch</w>
Sun ny</w>
Soc cer</w>
R on
Qu est</w>
Mil ky</w>
J ul
I phone</w>
Ev angelion</w>
D un
Char ac
B GM</w>
A si
100 ,000</w>
1 30
. aspx</w>
- related</w>
water- cooled</w>
vo d
t &apos;t</w>
superi ors</w>
ss an</w>
se curi
sacri fic
s. gov
publi cation</w>
popu lations</w>
pla cing</w>
pic ky</w>
persi st</w>
p lo
j a.
ir responsible</w>
in ge</w>
gu age</w>
ga i</w>
flow ed</w>
fi a</w>
ff er</w>
eigh th</w>
dom s</w>
de x</w>
con tries</w>
competi tiveness</w>
car p</w>
bro c
be tter
baza ar</w>
ang les</w>
Vi ew
T ama
T able</w>
Sh ort</w>
Mo bile</w>
Lev el</w>
IN G
E D
Drea ms</w>
Dep p</w>
Cul tural</w>
AS E</w>
9 pm</w>
9 7
5 3
19 45</w>
// news.
up -
u gh</w>
traine e</w>
sta ir
slipper y</w>
slang s</w>
shop .</w>
sei sm
scholar ships</w>
scen ic</w>
prospe ct</w>
phra sing</w>
philos ophi
om at
meth o
ki ssing</w>
imp l
hi to</w>
her e..</w>
he ck</w>
ha ma</w>
gu ration</w>
gri ll</w>
gli mp
g love</w>
fun n
duc ed</w>
cra ft
contra cted</w>
condi tioned</w>
cocon ut</w>
chemi st</w>
che e
attemp ts</w>
ate d.</w>
associ ates</w>
Yaman ashi</w>
UD ON</w>
U s
Sci enti
Ore gon</w>
O ther
O ne
More over</w>
Mongo lia</w>
L ap
Kor ea.</w>
J- pop</w>
I Q</w>
Gyo za</w>
Go ing</w>
Col umb
C lar
C K</w>
Archite cture</w>
6 3</w>
&apos; because</w>
y aku
win ners</w>
wa x</w>
tici an</w>
that ..</w>
t s
susp ici
sh old</w>
se w</w>
ren ov
reli ance</w>
regre tful</w>
per cus
od or</w>
nega tively</w>
moi sture</w>
mini sters</w>
l anding</w>
jump s</w>
j as
inter sted</w>
inter rupted</w>
in tui
iPad 2</w>
gra sses</w>
google .com</w>
flu id</w>
even though</w>
eco logical</w>
e b
disp ute</w>
campai gn
bul ary</w>
bow ls</w>
blo gger</w>
bit .ly</w>
ay ing</w>
at elly</w>
ar ou
ac ou
^ .</w>
Ya o</w>
Vo ca
TO YO
Rom ance</w>
M ir
M en
Lot te</w>
Ka oh
In c</w>
Go gh</w>
G ab
F requ
E C</w>
Def ense</w>
C ou
C -
Bo x</w>
BB S</w>
B et
Ap r</w>
A wards</w>
9 2</w>
- fi</w>
u ta</w>
ty po
train .</w>
tal lest</w>
surpri ses</w>
super natural</w>
struc tured</w>
sta tic</w>
sp in</w>
sm allest</w>
slu g
second hand</w>
q i
puzz les</w>
pro xy
over ly</w>
no vel
navi gation</w>
mathema tical</w>
like .</w>
li z
int ments</w>
i g</w>
high light</w>
heart warming</w>
grown -up</w>
g g</w>
f lied</w>
en abled</w>
eco logy</w>
diagnos is</w>
de m</w>
consi sting</w>
congrat ulation</w>
come dies</w>
citiz en
che eks</w>
bor ders</w>
bl ur
bibli ography</w>
back yard</w>
at ter</w>
appu ccino</w>
ap parent</w>
anticip ated</w>
affi li
advi ser</w>
acupun cture</w>
ac quisition</w>
Th ur
T w
Ser ies</w>
OM E</w>
M ANG
L eg
Ha ha</w>
E pi
A .
8 7</w>
5 7</w>
wat ering</w>
vo cation</w>
vari ations</w>
timi d</w>
subsi dy</w>
subsequ ently</w>
st al
snee ze</w>
sli ppers</w>
refriger ators</w>
rang ing</w>
rail road</w>
proxy 1.
pi ety</w>
mor ality</w>
mistake s.</w>
min us</w>
measure ment</w>
lib proxy1.
li ers</w>
lea kage</w>
ke st</w>
japan ese
hol ders</w>
h all
gra sp
fla kes</w>
fin dings</w>
es presso</w>
ep ic
en d-
el bow</w>
duc ks</w>
do ck</w>
dis appearing</w>
di stor
craw l</w>
con temp
con front</w>
can teen</w>
bur ary</w>
bou l
attribu ted</w>
as sure</w>
annu ally</w>
ani stan</w>
W ei
UR E</w>
Termin ator</w>
Sta dium</w>
Ph D</w>
O zawa</w>
Hong Kong</w>
Fi ve</w>
Fi sh</w>
Disc overy</w>
Di sa
Com mer
C AN</w>
versi de</w>
ver anda</w>
us er
unprece dented</w>
threat ening</w>
t ants</w>
sustain ability</w>
stun ned</w>
sensi tivity</w>
scoot er</w>
ra fting</w>
per forms</w>
p as</w>
out si
mini -
mat ching</w>
ma iling</w>
horiz ons</w>
him ,</w>
he el</w>
fle a</w>
excer cise</w>
d ged</w>
coo k
contro ller</w>
class rooms</w>
check -up</w>
cha ins</w>
burea u
bl onde</w>
as sion</w>
al ley</w>
ak er</w>
Stud ying</w>
R ap
No bu</w>
L ad
H ina</w>
Confu cius</w>
C all</w>
Belar us</w>
Ap p</w>
An sw
AN T
7 am</w>
&apos; You</w>
à </w>
world- nuclear.org/info/
veg it
van illa</w>
v oted</w>
twi light</w>
tit is</w>
tac tics</w>
supp lied</w>
stri king</w>
sla ves</w>
shad owing</w>
s- in-law</w>
plu g</w>
pic ks</w>
ot o
or tho
negoti ation</w>
myster ies</w>
mi ya</w>
maxi mi
loy ment</w>
loy alty</w>
logy /
kk kk
jac kets</w>
ja. wikipedia.org</w>
inter nationally</w>
inhabit ants</w>
implan ted</w>
i ss
guit er</w>
gra ders</w>
govern mental</w>
gar den
g ori
fu rious</w>
fu ckin</w>
for gi
fa x</w>
e sp
dri p</w>
depen ded</w>
day light</w>
comple ting</w>
char ging</w>
bra tions</w>
assist ants</w>
ar rest</w>
appri ciate</w>
any thing.</w>
acce ssed</w>
about .</w>
abo ard</w>
Y ES</w>
W oo</w>
U P
Tak ao</w>
Tai yaki</w>
T os
S car
P ach
Mac Donald</w>
M eg
Lou is</w>
Le o</w>
Is lam</w>
F OR
E F</w>
C H</w>
Bri an</w>
B re
11 pm</w>
0 ,000</w>
- ups</w>
y an
usu aly</w>
ud ent</w>
twi t
tooth brush</w>
sur ger
stro kes</w>
sa -
re trieved</w>
ra ck</w>
plea se.</w>
per o</w>
p f
oo th</w>
ne gli
n /
marri ages</w>
litt le.</w>
k uni</w>
in cu
illustr ates</w>
hope ful</w>
grou p
em it</w>
eco- friendly</w>
drin ker</w>
dr yer</w>
cr own</w>
compu ting</w>
cheer fully</w>
bul b</w>
brow sed</w>
bet we
arch y</w>
alpha be
al thought</w>
Wed nes
R un</w>
Per u</w>
NO TE</w>
Mon ica</w>
La vigne</w>
Kaoh siung</w>
In di
Fire fox</w>
Cu stom
Cal gary</w>
B ack
Afgh anistan</w>
A :</w>
198 7</w>
198 0s</w>
&apos; that</w>
wi sely</w>
unbeliev ably</w>
thank s,</w>
soci able</w>
sh anghai</w>
se per
say ings</w>
ri pe</w>
ri ce
repla cing</w>
re strict</w>
ra tions</w>
present ing</w>
prefer ences</w>
pos session</w>
poli shed</w>
pen ci
origin s</w>
not -
mer cy</w>
ment -
master pieces</w>
lo yal</w>
lei surely</w>
is ..</w>
inc ense</w>
he he
fun ded</w>
ff in</w>
fast- food</w>
expan sion</w>
d os
conver sion</w>
ch err
c ti
blo gging</w>
bea cause</w>
b end</w>
ag ents</w>
acqu iring</w>
Wom an</w>
W ILL</w>
Toku shima</w>
TOYO TA</w>
Scot tish</w>
Sche me</w>
Sa int-
I se</w>
Hun garian</w>
HEL P</w>
Gr ou
GR E</w>
G ran
4 .</w>
y ea
voca tional</w>
ven dor</w>
v otes</w>
tru st
tre kking</w>
them ..</w>
th ay</w>
t oshi
stimul us</w>
spark ling</w>
sl ender</w>
sh an</w>
sevent een</w>
serv atory</w>
schoo ling</w>
say :</w>
sa wa</w>
s ought</w>
restri ction</w>
re stor
ra sh</w>
r ape</w>
pick les</w>
p imp
of- the-
mur derer</w>
mb le
legi s
la cked</w>
ing /
in different</w>
in clu
in adequate</w>
ga zed</w>
fu ku</w>
fir end</w>
escap ing</w>
ent ly.</w>
en sures</w>
en sion</w>
distribu te</w>
dischar ged</w>
din er</w>
dilig ently</w>
d ine</w>
confron ted</w>
chri sti
ch op</w>
bo o</w>
bar king</w>
astron au
ag i
Ne ed</w>
Musli m</w>
Liber al</w>
J i</w>
C AL
Al len</w>
A E</w>
. shtml</w>
where by</w>
uti lity</w>
supple ment</w>
spect ators</w>
sp or
sing les</w>
si ghted</w>
sculp ture</w>
salesper son</w>
r ated</w>
pu mp</w>
pre ven
pe as
part 1</w>
par lor</w>
nom inated</w>
n l
ma cy</w>
los ses</w>
k angar
interpre ted</w>
htt p-
hom eland</w>
g aller
er a
emb race</w>
domin ated</w>
di sin
curricul ar</w>
contra cts</w>
compens ate</w>
co logy</w>
ch ang</w>
ceram ic</w>
can .</w>
bore dom</w>
ben eath</w>
b ows</w>
ax y</w>
au strali
WI TH</w>
W .</w>
Slo va
OO L</w>
O hh</w>
Musi cal</w>
Kawa saki</w>
Indu stri
Fil m</w>
Ben j
B I</w>
0 90
- ing</w>
･･ ･</w>
wri ten</w>
wind ow
wel coming</w>
wei ghs</w>
up per
un it
thre ats</w>
theore tical</w>
th ic</w>
ster y</w>
ste aling</w>
sk ies</w>
sister -in-law</w>
sarca stic</w>
s qua
resi gnation</w>
re sorts</w>
prof icient</w>
ori ental</w>
ma tically</w>
it er</w>
inter ro
instin ct</w>
hum ani
haha haha
ha d
ga ze</w>
g ur
exagger ation</w>
even ing.</w>
en se
diff cult</w>
de bu
cur tains</w>
contro ls</w>
chest nut</w>
apric ot</w>
Wat son</w>
Sy n
S AM
Ra iny</w>
RE BORN</w>
M as
Ke i</w>
K inkaku
K ana</w>
JAP AN
G w
F air</w>
Every body</w>
C as
C a</w>
Be ing</w>
23 th</w>
00 -
use ing</w>
ur ine</w>
tow els</w>
simil arity</w>
scre en
rele asing</w>
regre tting</w>
re members</w>
puni sh</w>
prosper ous</w>
presi dential</w>
pot entially</w>
pier ced</w>
pen e
pe ar</w>
pain ts</w>
p anese</w>
osi on</w>
melancho ly</w>
me tropolitan</w>
me ow</w>
mani fe
macker el</w>
ke d.</w>
int on</w>
ing ness</w>
her e,</w>
gener ates</w>
fra gment</w>
flick r.com</w>
fla ws</w>
festi val
fami lly</w>
evacu ate</w>
econom ies</w>
disp at
const el
co coa</w>
chi ken</w>
c ello</w>
brand- new</w>
ar cha
apos trop
and roid</w>
amatsu ri</w>
alum ni</w>
addi ct</w>
a un
Wat anabe</w>
Tu es
St art</w>
P il
O E
New s/
N R</w>
L oo
I sa
G il
G RE
G F</w>
F ul
Engine er</w>
D ong
Con an</w>
Boo k
Benj amin</w>
B -
Alex ander</w>
3 G</w>
ｓ </w>
wir te</w>
way ..</w>
volu mes</w>
ves sel</w>
trans fer
time table</w>
sw inging</w>
sub jective</w>
su ki</w>
sp ic
sof ter</w>
repl ying</w>
re consider</w>
pin ch</w>
oo h</w>
o b</w>
mon thes</w>
missi on
minute s.</w>
ma e</w>
lo ans</w>
lin gu
kinder garden</w>
inst ea
gi ra
gi f
fol ded</w>
extra cted</w>
evol ved</w>
en rol
doz ens</w>
doctor al</w>
cuisin es</w>
counsel or</w>
ca ster</w>
c lists</w>
bor i</w>
bor d</w>
atten de
as sured</w>
adv entures</w>
accommo date</w>
Yuk a</w>
Vil lage</w>
V isa</w>
T A
Ste p</w>
SH IN
S till</w>
S ar
S AT</w>
Ques tions</w>
Pap a</w>
Other wise</w>
Odai ba</w>
OR I</w>
New s
N R
L in</w>
Ko i
I zu
Fort un
Colom bia</w>
C T</w>
Bl ood</w>
A qu
50 s</w>
3 50</w>
10 pm</w>
&apos; How</w>
wei ghts</w>
view er</w>
tru cks</w>
tra its</w>
toler ate</w>
toler ant</w>
to s</w>
to a
t ally</w>
super b</w>
sub stitu
step ping</w>
so ,</w>
sig ni
shi ki</w>
serv ants</w>
sel ves.</w>
sc ales</w>
s b</w>
s ab
re vision</w>
pen sions</w>
pen icillin</w>
nostal gia</w>
neighb ours</w>
ne ath</w>
moti va
low s</w>
k oshi</w>
insi sts</w>
inc entive</w>
helicop ter</w>
he mi
fa st.</w>
f ere</w>
expendi tures</w>
ev ity</w>
dv d</w>
confidenti ality</w>
clos es</w>
chan ted</w>
ce let</w>
ca vity</w>
bri dges</w>
au tum
appla use</w>
ant om</w>
anno ys</w>
ann e</w>
an ata</w>
allevi ate</w>
W E
P oc
P an</w>
Musli ms</w>
Mon days</w>
Len non</w>
LAS IK</w>
Kei o</w>
Fr ank</w>
Bri t
5 8</w>
200 6
199 1</w>
y ok
vit a
tri als</w>
terri fied</w>
ter s.</w>
t own
su scep
str en
ss a</w>
sk aters</w>
seism ic</w>
recei ves</w>
re stored</w>
psy chi
pot ter</w>
pop corn</w>
pi tiful</w>
people ,</w>
p sy</w>
p opped</w>
ne ur
loc als</w>
laugh s</w>
k ud
j it
it en-
ing- of-
illu min
ga tive</w>
fil med</w>
ei l</w>
earne stly</w>
e uro</w>
cooper ative</w>
conjun ctions</w>
compe tence</w>
comp ound</w>
c ought</w>
break through</w>
bang s</w>
ba -
al together</w>
Z h
Y ep</w>
U gly</w>
S ophi
S onic</w>
Mo vies</w>
Met al</w>
J erry</w>
Hun gary</w>
H ow
H ills</w>
D al
Bro thers</w>
Ara shi</w>
7 7</w>
7 1</w>
6 1</w>
1000 yen</w>
1 10</w>
wh eather</w>
vod ka</w>
view /
v as
tur tles</w>
th ed</w>
ter ns</w>
tatt oos</w>
tap es</w>
st aple</w>
sp illed</w>
shir o</w>
shi vering</w>
rup t
recomm ends</w>
pic .com</w>
os to
ol is</w>
mom my</w>
inf lation</w>
ic an</w>
http- equi
http-equi v</w>
gu t</w>
floo ding</w>
fli p</w>
face- to-
excep tional</w>
enough .</w>
ell ers</w>
edi ble</w>
do zen</w>
disp os
d p</w>
cro codi
classi cs</w>
capitali sm</w>
birth days</w>
be verages</w>
be half</w>
advi sor</w>
adv ent
adop tion</w>
Z hou</w>
Uk rain
Swee t</w>
Si ster</w>
Leon ardo</w>
Imp ort
G E</w>
Di gital</w>
D inner</w>
D ay
C ool</w>
A void</w>
ō </w>
wi red</w>
wi l</w>
wa ved</w>
unbear able</w>
tri angle</w>
tou ch
th ,</w>
targe ted</w>
sw elling</w>
st ur
ssi onal</w>
so dium-cooled</w>
singap ore
rest less</w>
rep ay</w>
re d-
produc ers</w>
prison ers</w>
per ceived</w>
open- minded</w>
mon ds</w>
lic on</w>
ki dney</w>
illustr ated</w>
identi cal</w>
i .</w>
hhhh hhhh
h ook</w>
gre ed</w>
gr ants</w>
gi fted</w>
exe cute</w>
even ings</w>
ev </w>
eri e</w>
envirom ent</w>
earli est</w>
distur bing</w>
di gging</w>
di al</w>
cur ly</w>
confer ences</w>
ca se.</w>
bru tal</w>
bri ghtly</w>
anesthe sia</w>
Yu -
Ven us</w>
Rach el</w>
O hanami</w>
N ako</w>
Liber ty</w>
L e</w>
Ju lie</w>
Jose ph</w>
Isla mic</w>
H IV</w>
G ul
F ine</w>
E bi
Chinese .</w>
C are
Ba th</w>
A way</w>
9 4</w>
2 days</w>
&apos; -</w>
www. flickr.com</w>
web site.</w>
war m-
ver tical</w>
v ices</w>
up loading</w>
tru e.</w>
trans la
ta ke
spi ration</w>
short- term</w>
ru b</w>
respe cting</w>
protot ype</w>
prop ag
par ting</w>
pa thetic</w>
m ount</w>
lunch box</w>
luck ly</w>
libproxy1. nus.edu.sg/
in take</w>
in os</w>
il sh</w>
hesit ant</w>
help .</w>
graph s</w>
girl .</w>
ff al
ex pi
ep ide
e th</w>
decl ar
coordin ator</w>
conson ant</w>
colle age</w>
book shop</w>
beg ging</w>
awa k
age ous</w>
afterno on.</w>
afflu ent</w>
ab strac
Un less</w>
Tan aka</w>
Sh enzhen</w>
S and
Rab bit</w>
R you
Portu gal</w>
NE W
Mi so</w>
K TV</w>
Happ iness</w>
Fac tory</w>
EL L</w>
B ry
An do</w>
A nat
4 3
y ell</w>
ven s</w>
un g-
therap ist</w>
summ er
str ous</w>
stor i
sta in</w>
sp am</w>
sl ur
si t-
sh cool</w>
rul ing</w>
recru iting</w>
pa sted</w>
o ce
no logy</w>
mother .</w>
mea suring</w>
inte gration</w>
hor se
high- temperature</w>
her b</w>
ha v</w>
gri p</w>
ge t-
fla me</w>
ef fort
dis agre
direc tors</w>
dic ally</w>
develop ers</w>
depic ted</w>
comp osing</w>
cl an</w>
cho oses</w>
ca -
b ent</w>
at on</w>
any on</w>
anticip ate</w>
admini strator</w>
ac cessibility</w>
S aga</w>
R ing</w>
Pa ul
P rom
Omi kuji</w>
O V
Ne ver
N in
ML B</w>
J ose</w>
IN A</w>
GO D</w>
E s
Chi ld</w>
Ce bu</w>
Ac cording</w>
AR T</w>
2 weeks</w>
◆ </w>
wher e.</w>
wat er.</w>
va cation.</w>
twit pic.com</w>
t ou</w>
sy llable</w>
slug gish</w>
sleep less</w>
ski pping</w>
situ ation
sh ino</w>
sel lers</w>
sci ences</w>
s le</w>
rou tes</w>
rfi d
r he
provin ces</w>
p ounding</w>
om o
mid st</w>
metab oli
mat ured</w>
mar i</w>
m ania</w>
lefto vers</w>
la y
l t</w>
l /
juni ors</w>
j el
it ly</w>
inst ream</w>
inferi ority</w>
inf ant</w>
ic o</w>
ho g</w>
grea sy</w>
face-to- face</w>
establi shing</w>
en /
dra stic</w>
de tri
de sc
d b
crac ker</w>
cos play</w>
conver se</w>
colour ful</w>
cir cus</w>
ci ve</w>
cap tions</w>
bu l</w>
bo ast</w>
adver bs</w>
adv ancing</w>
a ..</w>
MANG A</w>
M C</w>
Imp res
Hou sing</w>
Hin amatsuri</w>
F L
Econom ist</w>
ES T</w>
ER S</w>
E L</w>
Con tro
30 minutes</w>
. go
- minded</w>
ya -
y in</w>
vo y
very -
under neath</w>
un acceptable</w>
ud ge</w>
the art</w>
th under
te ar
susp ense</w>
stri kes</w>
sti mulated</w>
sponsor ed</w>
sk ate
rot ten</w>
ri s
revi ve</w>
reflec ting</w>
rec kon</w>
r ot</w>
pronoun cing</w>
pi one
pengu in</w>
off spring</w>
night ,</w>
men s</w>
m ally</w>
low ered</w>
le dge</w>
k ur
inter active</w>
in corpor
il t</w>
humi di
gymnas tics</w>
floo ds</w>
fi ber</w>
fat ter</w>
entertain er</w>
distin ction</w>
dee pest</w>
cos y
col oring</w>
ci sm</w>
char coal</w>
bro th</w>
bod y,</w>
bloom s</w>
as an</w>
announ cer</w>
air y</w>
ai ko</w>
acou stic</w>
accent ed</w>
a ji</w>
Ten nis</w>
T hou
Ri o</w>
Priv acy</w>
Ju do</w>
For ce</w>
FRIEN DS</w>
Ein stein</w>
Cere mony</w>
Cer ti
Af fairs</w>
- to</w>
- free</w>
′ </w>
y. cc</w>
vita mins</w>
um ..</w>
u tter
tri gg
tin y.cc</w>
ta tive</w>
shor test</w>
sa use</w>
s. co.jp</w>
re ta
radi cal</w>
prepar es</w>
pre fers</w>
plan ets</w>
pe aches</w>
paper back</w>
ote ch
os ci
on ica</w>
o ll</w>
ne phe
moon light</w>
mis m</w>
me .
mar king</w>
machin ery</w>
loo p</w>
li ter</w>
lear ing</w>
kic king</w>
ket ch
j ar
in sur
im i</w>
home ,</w>
ha zard</w>
go at</w>
fro ze</w>
courte sy</w>
conson ants</w>
conduc ting</w>
clear .</w>
car bo
cap abilities</w>
cal med</w>
broc coli</w>
bo os
bad y</w>
ani mat
ani cal</w>
an ,</w>
am o</w>
Yuki o</w>
Su zu
S oul</w>
Ru by</w>
R ama
Pron unciation</w>
Prob ably</w>
Pre sent
O mot
O P
Nat ali
Mom ot
Me tropolitan</w>
Mal ta</w>
IL E</w>
Gene tic
E 8</w>
E 7</w>
Cost co</w>
Cau ca
CS I</w>
Bra d</w>
Bar ack</w>
B ot
Au th
AI DS</w>
6 pm</w>
5 km</w>
0 3
&apos; as</w>
z ine</w>
will ingness</w>
warri or</w>
tal k
sli ding</w>
shog un
sh ank</w>
se ize</w>
se ash
ri ly</w>
rese mble</w>
re stra
py ra
pa i</w>
or naments</w>
ni es</w>
min ing</w>
mi ko</w>
ma sh
lo b
lec tion</w>
land .</w>
ka waii</w>
i pad</w>
hi bition</w>
handic ap</w>
funni est</w>
ec centric</w>
du al</w>
dis appears</w>
dinos aur
depri ved</w>
da sh</w>
cri spy</w>
copi pe</w>
confi dently</w>
com e.</w>
ci ans</w>
chap ters</w>
categ orized</w>
bri tish</w>
be d.</w>
ar az
an ten
an atom
adju st
abu </w>
Xia o
W u</w>
Pi ano</w>
Par a
O ff</w>
O da
Mathema tics</w>
Kei go</w>
K re
I dol</w>
H mm..</w>
Ge o
G I</w>
Fig ure</w>
ES T
D az
Che ck</w>
Cair ns</w>
B ach</w>
Al most</w>
9 am</w>
199 0s</w>
zz le</w>
ven der</w>
us able</w>
ul es</w>
tu esday</w>
tic k
syste m
sub jec
str ap</w>
stin gy</w>
sti ve</w>
st m</w>
rul ed</w>
reve als</w>
recy cled</w>
rea s
prospe cts</w>
progre ssed</w>
partic ul
par aph
p- hop</w>
lang age</w>
k az
it on</w>
in voice</w>
in sight</w>
hy gi
her edi
gr umb
ga mo</w>
fil ter</w>
ene d.</w>
ea siness</w>
down s</w>
disp ose</w>
dici ded</w>
dec eased</w>
d ared</w>
could &apos;nt</w>
cor respond</w>
co ffe</w>
cir cul
charac tor</w>
ce dar</w>
cau tions</w>
c /
bud gets</w>
bott led</w>
batt le
ban quet</w>
ad ress</w>
a the
P anda</w>
OK .</w>
Nik kei</w>
Mar keting</w>
Ki chi
Fri days</w>
Ex erci
English :</w>
Edi son</w>
CH I</w>
CE T-
19 00</w>
- shaped</w>
* .</w>
z z</w>
year s,</w>
web site
wea ther
wat ers</w>
w all
un related</w>
u ter
tor to
ten -
sur round</w>
sub ject
sh ments</w>
scre ens</w>
reme dy</w>
psycho logists</w>
ome o</w>
n inja</w>
mul ticul
li ters</w>
key words</w>
j ou
ink y</w>
imp erial</w>
im pe
glimp se</w>
frame work</w>
f itted</w>
emer ged</w>
eli te</w>
e cosy
dif icult</w>
d ude</w>
cy clists</w>
cur ve</w>
cu shion</w>
crac kers</w>
contex ts</w>
con try</w>
con science</w>
champ agne</w>
centi grade</w>
care lessly</w>
carbo hydr
bulle tin</w>
bu mp</w>
br unch</w>
beauti cian</w>
ari ses</w>
ar ou</w>
ani sm</w>
Yuk o</w>
Touri sm</w>
Th us</w>
TE SO
Stra its</w>
Pro cess</w>
O da</w>
N ick</w>
I L</w>
F our
Ele ven</w>
AR Y</w>
8 00
7 00
&apos; have</w>
z aka</w>
yor k</w>
work ,</w>
wi i</w>
wa ving</w>
vor ous</w>
vigor ous</w>
view points</w>
to asted</w>
t A</w>
restaur ant.</w>
recru itment</w>
read ing,</w>
re t</w>
pu </w>
por n</w>
p ers</w>
ou tra
ob sc
nine teen</w>
ni hon
movi es.</w>
mirac ul
me tal
liber al</w>
j ou</w>
haun ted</w>
glu e</w>
g aga</w>
exc el</w>
eigh ty</w>
easi ly.</w>
e ber</w>
dump ed</w>
dream t</w>
d ama</w>
com ers</w>
com bu
b ill
atta chment</w>
arch ery</w>
ac es</w>
ab sent
Wal k</w>
T GIF</w>
Q 1</w>
Nor rg
N I
M i</w>
L ic
J eff
Hat sune</w>
G all
G H
F A
English- Japanese</w>
Elec tri
Ch op
B M
Aca demic</w>
A ka
7 pm</w>
//www. world-nuclear.org/info/
- ji</w>
&apos; s.</w>
work shops</w>
vivi dly</w>
veter in
v ana</w>
thou ght.</w>
ta sk
t ories</w>
swee tness</w>
strai ght
stimul ating</w>
speciali ze</w>
sp reads</w>
sle y</w>
si ded</w>
short cut</w>
sh inkansen</w>
sev enty</w>
scrat ched</w>
sa d
s ca
ro adm
ri verside</w>
ri sed</w>
re presentation</w>
re main
quick er</w>
pro jected</w>
per ceive</w>
o den</w>
not orious</w>
mon th-
mista k
mar ath
m t</w>
lefto ver</w>
labor at
la v
k ite</w>
k ick
it iner
investi gated</w>
illustr ator</w>
id ols</w>
gri ty</w>
fortun es</w>
ev in</w>
er ase</w>
ener gies</w>
discover ing</w>
delici ous.</w>
defec ts</w>
d ense</w>
compar able</w>
catastroph ic</w>
cat tle</w>
carri age</w>
cap tion</w>
bra celet</w>
bath rooms</w>
at in</w>
astoni shing</w>
apostrop he</w>
ap y</w>
ali zing</w>
accep ts</w>
a h
W an</w>
TV s</w>
T ell</w>
S hou
S R</w>
Rin go</w>
Re gi
R ace</w>
Mil k</w>
M ent
L IF
I de
Hou se
G ates</w>
G -
Ev ening</w>
D au
Ch ong
Ayu mi</w>
24 -
2 pm</w>
15 -
10 am</w>
. 5</w>
whit e-
was .</w>
v ings</w>
uni qu
under going</w>
un realistic</w>
top -
ter ror</w>
succe ssive</w>
sm as</w>
skin s</w>
ri o</w>
recei pt</w>
reason ing</w>
r t</w>
pro -
prescri bed</w>
pe ple</w>
partic le</w>
p ts</w>
mu tation</w>
mi sery</w>
lic en
knowledge able</w>
ju ly</w>
is -
inter personal</w>
inter fere</w>
fil ed</w>
fic tional</w>
f el
enthusias tically</w>
eleph ants</w>
ear phone</w>
doub tful</w>
diver ting</w>
cran es</w>
comprehen sible</w>
col n</w>
chu bby</w>
ch ick</w>
bro ther
boun dary</w>
bla ming</w>
b last</w>
as .</w>
am is</w>
TESO L</w>
Sty le</w>
Ro ll</w>
Ra dio
Pizz a</w>
Patri ck</w>
ON LY</w>
O i
Ni ssan</w>
N ori
N ana</w>
Me et</w>
Lin coln</w>
Lab </w>
L au
K I</w>
H IM
E VER
Correc tion</w>
Ci vil</w>
A 1</w>
9 6
8 9</w>
19 50</w>
yu zu</w>
y day</w>
work book</w>
which ever</w>
wh aling</w>
ve d.</w>
[...]
